{
  "version": "1.0",
  "truncation": null,
  "padding": null,
  "added_tokens": [
    {
      "id": 0,
      "content": "<pad>",
      "single_word": false,
      "lstrip": false,
      "rstrip": false,
      "normalized": false,
      "special": true
    },
    {
      "id": 1,
      "content": "<unk>",
      "single_word": false,
      "lstrip": false,
      "rstrip": false,
      "normalized": false,
      "special": true
    },
    {
      "id": 2,
      "content": "<bos>",
      "single_word": false,
      "lstrip": false,
      "rstrip": false,
      "normalized": false,
      "special": true
    },
    {
      "id": 3,
      "content": "<eos>",
      "single_word": false,
      "lstrip": false,
      "rstrip": false,
      "normalized": false,
      "special": true
    },
    {
      "id": 4,
      "content": "<sep>",
      "single_word": false,
      "lstrip": false,
      "rstrip": false,
      "normalized": false,
      "special": true
    },
    {
      "id": 5,
      "content": "<tool>",
      "single_word": false,
      "lstrip": false,
      "rstrip": false,
      "normalized": false,
      "special": true
    },
    {
      "id": 6,
      "content": "<tool_result>",
      "single_word": false,
      "lstrip": false,
      "rstrip": false,
      "normalized": false,
      "special": true
    },
    {
      "id": 7,
      "content": "<user>",
      "single_word": false,
      "lstrip": false,
      "rstrip": false,
      "normalized": false,
      "special": true
    },
    {
      "id": 8,
      "content": "<assistant>",
      "single_word": false,
      "lstrip": false,
      "rstrip": false,
      "normalized": false,
      "special": true
    }
  ],
  "normalizer": {
    "type": "Sequence",
    "normalizers": [
      {
        "type": "NFC"
      }
    ]
  },
  "pre_tokenizer": {
    "type": "ByteLevel",
    "add_prefix_space": false,
    "trim_offsets": true,
    "use_regex": true
  },
  "post_processor": null,
  "decoder": {
    "type": "ByteLevel",
    "add_prefix_space": true,
    "trim_offsets": true,
    "use_regex": true
  },
  "model": {
    "type": "BPE",
    "dropout": null,
    "unk_token": "<unk>",
    "continuing_subword_prefix": null,
    "end_of_word_suffix": null,
    "fuse_unk": false,
    "byte_fallback": true,
    "ignore_merges": false,
    "vocab": {
      "<pad>": 0,
      "<unk>": 1,
      "<bos>": 2,
      "<eos>": 3,
      "<sep>": 4,
      "<tool>": 5,
      "<tool_result>": 6,
      "<user>": 7,
      "<assistant>": 8,
      "!": 9,
      "\"": 10,
      "#": 11,
      "$": 12,
      "%": 13,
      "&": 14,
      "'": 15,
      "(": 16,
      ")": 17,
      "*": 18,
      "+": 19,
      ",": 20,
      "-": 21,
      ".": 22,
      "/": 23,
      "0": 24,
      "1": 25,
      "2": 26,
      "3": 27,
      "4": 28,
      "5": 29,
      "6": 30,
      "7": 31,
      "8": 32,
      "9": 33,
      ":": 34,
      ";": 35,
      "<": 36,
      "=": 37,
      ">": 38,
      "?": 39,
      "@": 40,
      "A": 41,
      "B": 42,
      "C": 43,
      "D": 44,
      "E": 45,
      "F": 46,
      "G": 47,
      "H": 48,
      "I": 49,
      "J": 50,
      "K": 51,
      "L": 52,
      "M": 53,
      "N": 54,
      "O": 55,
      "P": 56,
      "Q": 57,
      "R": 58,
      "S": 59,
      "T": 60,
      "U": 61,
      "V": 62,
      "W": 63,
      "X": 64,
      "Y": 65,
      "Z": 66,
      "[": 67,
      "\\": 68,
      "]": 69,
      "^": 70,
      "_": 71,
      "`": 72,
      "a": 73,
      "b": 74,
      "c": 75,
      "d": 76,
      "e": 77,
      "f": 78,
      "g": 79,
      "h": 80,
      "i": 81,
      "j": 82,
      "k": 83,
      "l": 84,
      "m": 85,
      "n": 86,
      "o": 87,
      "p": 88,
      "q": 89,
      "r": 90,
      "s": 91,
      "t": 92,
      "u": 93,
      "v": 94,
      "w": 95,
      "x": 96,
      "y": 97,
      "z": 98,
      "{": 99,
      "|": 100,
      "}": 101,
      "~": 102,
      "¡": 103,
      "¢": 104,
      "£": 105,
      "¤": 106,
      "¥": 107,
      "¦": 108,
      "§": 109,
      "¨": 110,
      "©": 111,
      "ª": 112,
      "«": 113,
      "¬": 114,
      "®": 115,
      "¯": 116,
      "°": 117,
      "±": 118,
      "²": 119,
      "³": 120,
      "´": 121,
      "µ": 122,
      "¶": 123,
      "·": 124,
      "¸": 125,
      "¹": 126,
      "º": 127,
      "»": 128,
      "¼": 129,
      "½": 130,
      "¾": 131,
      "¿": 132,
      "Â": 133,
      "Ã": 134,
      "Ä": 135,
      "Å": 136,
      "Æ": 137,
      "Ç": 138,
      "É": 139,
      "Ë": 140,
      "Ì": 141,
      "Î": 142,
      "Ï": 143,
      "Ð": 144,
      "Ñ": 145,
      "Ò": 146,
      "Ó": 147,
      "Ø": 148,
      "Ù": 149,
      "Ú": 150,
      "Û": 151,
      "à": 152,
      "á": 153,
      "â": 154,
      "ã": 155,
      "ä": 156,
      "å": 157,
      "æ": 158,
      "ç": 159,
      "è": 160,
      "é": 161,
      "ê": 162,
      "ë": 163,
      "ì": 164,
      "í": 165,
      "ï": 166,
      "ð": 167,
      "ĉ": 168,
      "Ċ": 169,
      "č": 170,
      "Ġ": 171,
      "Ģ": 172,
      "ģ": 173,
      "Ĥ": 174,
      "ĥ": 175,
      "Ħ": 176,
      "ħ": 177,
      "Ĩ": 178,
      "ĩ": 179,
      "Ī": 180,
      "ī": 181,
      "Ĭ": 182,
      "ĭ": 183,
      "Į": 184,
      "į": 185,
      "İ": 186,
      "ı": 187,
      "Ĳ": 188,
      "ĳ": 189,
      "Ĵ": 190,
      "ĵ": 191,
      "Ķ": 192,
      "ķ": 193,
      "ĸ": 194,
      "Ĺ": 195,
      "ĺ": 196,
      "Ļ": 197,
      "ļ": 198,
      "Ľ": 199,
      "ľ": 200,
      "Ŀ": 201,
      "ŀ": 202,
      "Ł": 203,
      "ł": 204,
      "Ń": 205,
      "Ġt": 206,
      "in": 207,
      "Ġa": 208,
      "čĊ": 209,
      "he": 210,
      "on": 211,
      "re": 212,
      "er": 213,
      "Ġthe": 214,
      "at": 215,
      "Ġs": 216,
      "or": 217,
      "en": 218,
      "it": 219,
      "an": 220,
      "es": 221,
      "Ġc": 222,
      "is": 223,
      "Ġo": 224,
      "Ġw": 225,
      "al": 226,
      "ar": 227,
      "Ġp": 228,
      "Ġf": 229,
      "ed": 230,
      "Ġan": 231,
      "ing": 232,
      "Ġb": 233,
      "ic": 234,
      "ou": 235,
      "Ġof": 236,
      "Ġm": 237,
      "ion": 238,
      "le": 239,
      "Ġd": 240,
      "Ġin": 241,
      "Ġto": 242,
      "Ġand": 243,
      "as": 244,
      "om": 245,
      "ĠĠ": 246,
      "ent": 247,
      "ct": 248,
      "Ġth": 249,
      "il": 250,
      "ĠA": 251,
      "st": 252,
      "Ġh": 253,
      "ĠS": 254,
      "ro": 255,
      "et": 256,
      "Ġn": 257,
      "Ġre": 258,
      "ve": 259,
      "ĠT": 260,
      "Ġe": 261,
      "Ġl": 262,
      "Ġis": 263,
      "ra": 264,
      "ol": 265,
      "ĠC": 266,
      "de": 267,
      "ut": 268,
      "im": 269,
      "Ġ1": 270,
      "ow": 271,
      "ce": 272,
      "ith": 273,
      "us": 274,
      "one": 275,
      "ation": 276,
      "ch": 277,
      "Ġg": 278,
      "Ġ(": 279,
      "ĠI": 280,
      "Ġ2": 281,
      "ot": 282,
      "ig": 283,
      "am": 284,
      "ly": 285,
      "Ġy": 286,
      "un": 287,
      "Ġfor": 288,
      "Ġbe": 289,
      "ĠP": 290,
      "ĠM": 291,
      "..": 292,
      "Âł": 293,
      "âĢ": 294,
      "ul": 295,
      "ur": 296,
      "ad": 297,
      "ver": 298,
      "ĠB": 299,
      "ay": 300,
      "ĠR": 301,
      "ĠH": 302,
      "id": 303,
      "qu": 304,
      "el": 305,
      "00": 306,
      "Ġthat": 307,
      "oney": 308,
      "ge": 309,
      "ir": 310,
      "ĠW": 311,
      "Ġon": 312,
      "../": 313,
      "ri": 314,
      "se": 315,
      "ĠG": 316,
      "ht": 317,
      "Ġyou": 318,
      "ĠĠĠĠ": 319,
      "if": 320,
      "Ġas": 321,
      "um": 322,
      "ĠF": 323,
      "ter": 324,
      "Ġst": 325,
      "ĠE": 326,
      "est": 327,
      "Ġal": 328,
      "ĠD": 329,
      "and": 330,
      "ate": 331,
      "Ġare": 332,
      "ers": 333,
      "](": 334,
      "ill": 335,
      "Ġpro": 336,
      "Ġcon": 337,
      "Ġde": 338,
      "Ġit": 339,
      "Ġwith": 340,
      "ab": 341,
      "ĠThe": 342,
      "Ġ[": 343,
      "oo": 344,
      "##": 345,
      "ac": 346,
      "Ġv": 347,
      "pp": 348,
      "th": 349,
      "à¨": 350,
      "her": 351,
      "ÂłÂł": 352,
      "res": 353,
      "Ġwh": 354,
      "ĠN": 355,
      "ĠL": 356,
      "ist": 357,
      "ment": 358,
      "lo": 359,
      "Ġor": 360,
      "Ġcom": 361,
      "Ġ-": 362,
      "Ġse": 363,
      "Ġwe": 364,
      "à¶": 365,
      "pe": 366,
      "Ġex": 367,
      "ps": 368,
      "á»": 369,
      "ak": 370,
      "ub": 371,
      "ew": 372,
      "Ġ=": 373,
      "te": 374,
      "01": 375,
      "Ġus": 376,
      "nd": 377,
      "ĠO": 378,
      "Ġ`": 379,
      "art": 380,
      "ction": 381,
      "ity": 382,
      "rom": 383,
      "all": 384,
      "ore": 385,
      "Ġ*": 386,
      "ess": 387,
      "Ġat": 388,
      "ant": 389,
      "à·": 390,
      "ave": 391,
      "Ġby": 392,
      "ain": 393,
      "ive": 394,
      "os": 395,
      "Ġk": 396,
      "Ġr": 397,
      "em": 398,
      "com": 399,
      "ld": 400,
      "nt": 401,
      "iv": 402,
      "son": 403,
      "ies": 404,
      "ard": 405,
      "oc": 406,
      "ort": 407,
      "ine": 408,
      "ust": 409,
      "dex": 410,
      "``": 411,
      "Ġhe": 412,
      "Ġch": 413,
      "Ġfrom": 414,
      "Ġthis": 415,
      "json": 416,
      "à®": 417,
      "ud": 418,
      "index": 419,
      "honey": 420,
      "](../": 421,
      "](../../": 422,
      "ure": 423,
      "ple": 424,
      "Ġ\"": 425,
      "ost": 426,
      "end": 427,
      "//": 428,
      "ight": 429,
      "--": 430,
      "Ġcan": 431,
      "ag": 432,
      "à°": 433,
      "$$": 434,
      "Ġ3": 435,
      "Ġhave": 436,
      "ial": 437,
      "ĠU": 438,
      "'s": 439,
      "pt": 440,
      "Ġ201": 441,
      "ear": 442,
      "Ġnot": 443,
      "Ġsh": 444,
      "ast": 445,
      "ĠJ": 446,
      "Ġwill": 447,
      "Ġun": 448,
      "Ġwas": 449,
      "://": 450,
      "age": 451,
      "ĠâĢ": 452,
      "pl": 453,
      "ber": 454,
      "per": 455,
      "ect": 456,
      "are": 457,
      "ult": 458,
      "ork": 459,
      "od": 460,
      "The": 461,
      "out": 462,
      "ase": 463,
      "á»į": 464,
      "ĠIn": 465,
      "áº": 466,
      "our": 467,
      "og": 468,
      "orm": 469,
      "ans": 470,
      "__": 471,
      "ated": 472,
      "Ġ4": 473,
      "ould": 474,
      "htt": 475,
      "àª": 476,
      "ich": 477,
      "Ġpl": 478,
      "ue": 479,
      "Ġle": 480,
      "ide": 481,
      "ame": 482,
      "ble": 483,
      "ang": 484,
      "âĢĻ": 485,
      "Ġsu": 486,
      "ind": 487,
      "ations": 488,
      "ord": 489,
      "ical": 490,
      "ff": 491,
      "low": 492,
      "Ġ0": 493,
      "ĠSt": 494,
      "up": 495,
      "red": 496,
      "ry": 497,
      "act": 498,
      "ook": 499,
      "Ġad": 500,
      "iz": 501,
      "ell": 502,
      "ĠĠĠ": 503,
      "rou": 504,
      "int": 505,
      "ph": 506,
      "ass": 507,
      "ions": 508,
      "cl": 509,
      "ary": 510,
      "ice": 511,
      "Ġne": 512,
      "ens": 513,
      "ther": 514,
      "https": 515,
      "10": 516,
      "av": 517,
      "xt": 518,
      "ome": 519,
      "ia": 520,
      "Ġab": 521,
      "Ġim": 522,
      "ĠTh": 523,
      "Ġ\\": 524,
      "ace": 525,
      "ack": 526,
      "ĠK": 527,
      "ip": 528,
      "ng": 529,
      "ach": 530,
      "Ġper": 531,
      "ile": 532,
      "so": 533,
      "Ġwhe": 534,
      "ĠRe": 535,
      "Ġhas": 536,
      ").": 537,
      "ite": 538,
      "Ġqu": 539,
      "Ġ5": 540,
      "ime": 541,
      "Ġyour": 542,
      "ap": 543,
      "ĠHoney": 544,
      "du": 545,
      "Ġme": 546,
      "Ġdo": 547,
      "Ġres": 548,
      "form": 549,
      "ere": 550,
      "Ġj": 551,
      "Ġone": 552,
      "ence": 553,
      "ath": 554,
      "able": 555,
      "ĠCh": 556,
      "ake": 557,
      "ik": 558,
      "ents": 559,
      "ick": 560,
      "Ġtheir": 561,
      "Ġwhich": 562,
      "ck": 563,
      "Ġthey": 564,
      "Ġcl": 565,
      "ous": 566,
      "Ġpart": 567,
      "ong": 568,
      "Ġcont": 569,
      "ÂłÂłÂłÂł": 570,
      "cc": 571,
      "op": 572,
      "Ġ19": 573,
      "Ġen": 574,
      "erm": 575,
      "Ġso": 576,
      "ail": 577,
      "Ġà¨": 578,
      "Ġmore": 579,
      "ĠV": 580,
      "ress": 581,
      "ll": 582,
      "ild": 583,
      "gh": 584,
      "ire": 585,
      "Ġall": 586,
      "ĠĠĠĠĠĠĠĠ": 587,
      "der": 588,
      "ount": 589,
      "ĠY": 590,
      "ally": 591,
      "Ġout": 592,
      "Ġbut": 593,
      "wo": 594,
      "ru": 595,
      "ance": 596,
      "ĠĠčĊ": 597,
      "à¯": 598,
      "ree": 599,
      "own": 600,
      "ode": 601,
      "ood": 602,
      "Ġcomm": 603,
      "Ġnum": 604,
      "Ġ2012": 605,
      "Ġalso": 606,
      "Ġcomp": 607,
      "Ġ$": 608,
      "ition": 609,
      "Ġup": 610,
      "Ġ6": 611,
      "fere": 612,
      "con": 613,
      "to": 614,
      "ates": 615,
      "Ġdis": 616,
      "pec": 617,
      "az": 618,
      "Ġother": 619,
      "Ġapp": 620,
      "Ġ10": 621,
      "with": 622,
      "Ġser": 623,
      "ign": 624,
      "ric": 625,
      "ĠAnd": 626,
      "ange": 627,
      "Ġman": 628,
      "Ġ+": 629,
      "ark": 630,
      "ie": 631,
      "ĠWith": 632,
      "áº¹": 633,
      "Ġwork": 634,
      "mer": 635,
      "ithub": 636,
      "ors": 637,
      "Honey": 638,
      "{\\": 639,
      "vers": 640,
      "12": 641,
      "ject": 642,
      "irst": 643,
      "Ġuse": 644,
      "ces": 645,
      "ft": 646,
      "ep": 647,
      "Ġar": 648,
      "we": 649,
      "reat": 650,
      "github": 651,
      "Ġif": 652,
      "Ġequ": 653,
      "###": 654,
      "ram": 655,
      "Ġwho": 656,
      "Ġsc": 657,
      "ove": 658,
      "à©": 659,
      "),": 660,
      "port": 661,
      "ics": 662,
      "Ġte": 663,
      "000": 664,
      "lic": 665,
      "Ġtra": 666,
      "les": 667,
      "ey": 668,
      "Ġyear": 669,
      "Ġtwo": 670,
      "ool": 671,
      "Ġabout": 672,
      "Ġthan": 673,
      "very": 674,
      "Ġsp": 675,
      "ov": 676,
      "Ġ$$": 677,
      "ata": 678,
      "ory": 679,
      "Ġpo": 680,
      "Ġdif": 681,
      "Ġx": 682,
      "In": 683,
      "ons": 684,
      "ĠUn": 685,
      "gle": 686,
      "ss": 687,
      "Ġfun": 688,
      "Ġ200": 689,
      "Ġkn": 690,
      "Ġadd": 691,
      "Ġag": 692,
      "Ġits": 693,
      "Ġthere": 694,
      "ener": 695,
      "Ġwould": 696,
      "als": 697,
      "ian": 698,
      "Ġtime": 699,
      "Ġwere": 700,
      "ven": 701,
      "Ġtr": 702,
      "âĢĿ": 703,
      "Ġà¶": 704,
      "ound": 705,
      "row": 706,
      "ĠThis": 707,
      "ved": 708,
      "Ġstud": 709,
      "ib": 710,
      "Ġ8": 711,
      "ish": 712,
      "ample": 713,
      "io": 714,
      "Ġfirst": 715,
      "use": 716,
      "cent": 717,
      "Ġcol": 718,
      "ning": 719,
      "ĠQ": 720,
      "----": 721,
      "ike": 722,
      "ec": 723,
      "Ġneed": 724,
      "Ġnew": 725,
      "ays": 726,
      "ms": 727,
      "Ġsome": 728,
      "ctions": 729,
      "ug": 730,
      "Ġincl": 731,
      "owe": 732,
      "Ð°": 733,
      "Ġ9": 734,
      "ser": 735,
      "||": 736,
      "Ġmat": 737,
      "iew": 738,
      "rit": 739,
      "20": 740,
      "ne": 741,
      "ink": 742,
      "ular": 743,
      "rib": 744,
      "Ġpr": 745,
      "cre": 746,
      "ts": 747,
      "hed": 748,
      "pro": 749,
      "Ġspec": 750,
      "Ġfind": 751,
      "Ġover": 752,
      "ĠWh": 753,
      "yst": 754,
      "Ġbet": 755,
      "Ġma": 756,
      "velo": 757,
      "raph": 758,
      "Ġ7": 759,
      "Ġsol": 760,
      "ys": 761,
      "Ġra": 762,
      "ont": 763,
      "iss": 764,
      "Ġpre": 765,
      "aw": 766,
      "Ġwhen": 767,
      "Ġhis": 768,
      "ract": 769,
      "Ġval": 770,
      "Ġro": 771,
      "ĠCom": 772,
      "tern": 773,
      "org": 774,
      "Ġwhat": 775,
      "Ġhad": 776,
      "eth": 777,
      "Ġgo": 778,
      "ĠEx": 779,
      "Ġany": 780,
      "ĠAd": 781,
      "eb": 782,
      "Ġfol": 783,
      "âĢ¢": 784,
      "read": 785,
      "19": 786,
      "ings": 787,
      "Ġbeen": 788,
      "```": 789,
      "Ġdiffere": 790,
      "Ġour": 791,
      "ari": 792,
      "Ġusing": 793,
      "Ġnumber": 794,
      "nce": 795,
      "Ġpe": 796,
      "ĠIt": 797,
      "ues": 798,
      "ative": 799,
      "Ġmay": 800,
      "ific": 801,
      "ystem": 802,
      "app": 803,
      "à±": 804,
      "chool": 805,
      "}}": 806,
      "ĠAr": 807,
      "Ġform": 808,
      "ek": 809,
      "arg": 810,
      "ĠAl": 811,
      "ĠPro": 812,
      "text": 813,
      "à¤": 814,
      "Ġthem": 815,
      "meric": 816,
      "Th": 817,
      "ob": 818,
      "ual": 819,
      "Ġi": 820,
      "ines": 821,
      "olog": 822,
      "ards": 823,
      "**": 824,
      "ci": 825,
      "Ãł": 826,
      "its": 827,
      "Ġ12": 828,
      "urn": 829,
      "laz": 830,
      "Ġinto": 831,
      "Ġunder": 832,
      "arch": 833,
      "igh": 834,
      "Ġproble": 835,
      "Ġdep": 836,
      "à¯į": 837,
      "Ġbu": 838,
      "Ġlike": 839,
      "Ġget": 840,
      "Ġco": 841,
      "Ġhow": 842,
      "Ġpoint": 843,
      "eng": 844,
      "ude": 845,
      "ments": 846,
      "velop": 847,
      "Ġfollow": 848,
      "ca": 849,
      "Ġph": 850,
      "Ġno": 851,
      "ah": 852,
      "bers": 853,
      "mon": 854,
      "ĠÐ": 855,
      "Ġused": 856,
      "Ġsa": 857,
      "Ġsub": 858,
      "Ġoff": 859,
      "11": 860,
      "ĠAmeric": 861,
      "oogle": 862,
      "Ġam": 863,
      "Ġthese": 864,
      "á»įn": 865,
      "ities": 866,
      "Ġdes": 867,
      "ĠAn": 868,
      "ution": 869,
      "ĠIf": 870,
      "Ġeach": 871,
      "Ġprov": 872,
      "ages": 873,
      "ced": 874,
      "ĠčĊ": 875,
      "Ġacc": 876,
      "ren": 877,
      "ited": 878,
      "Ġdata": 879,
      "Ġass": 880,
      "à·Ĭ": 881,
      "hen": 882,
      "Ġset": 883,
      "Ġreg": 884,
      "Ġonly": 885,
      "ock": 886,
      "ose": 887,
      "Ġthen": 888,
      "Ġsee": 889,
      "Ġact": 890,
      "Ġterm": 891,
      "Ġrec": 892,
      "Ġpost": 893,
      "Ġinst": 894,
      "ĠDe": 895,
      "ĠâĢľ": 896,
      "Ġ'": 897,
      "formation": 898,
      "Ġrel": 899,
      "50": 900,
      "fore": 901,
      "put": 902,
      "orn": 903,
      "lease": 904,
      "Ġmany": 905,
      "ining": 906,
      "Ġsim": 907,
      "me": 908,
      "Ġ&": 909,
      "ough": 910,
      "fra": 911,
      "Ġâ": 912,
      "ĠGoogle": 913,
      "Ġknow": 914,
      "ting": 915,
      "Ġwhere": 916,
      "Ġpos": 917,
      "Ġfe": 918,
      "ices": 919,
      "Ġsuch": 920,
      "'t": 921,
      "ise": 922,
      "icken": 923,
      "Ġinclud": 924,
      "Ġrep": 925,
      "ustard": 926,
      "Ã¡": 927,
      "Ġserv": 928,
      "ix": 929,
      "ĠHall": 930,
      "Ġcons": 931,
      "ins": 932,
      "Ġinv": 933,
      "oth": 934,
      "resent": 935,
      "ween": 936,
      "cul": 937,
      "ful": 938,
      "pr": 939,
      "Ġ{": 940,
      "comm": 941,
      "ible": 942,
      "sh": 943,
      "enc": 944,
      "Ġinte": 945,
      "ator": 946,
      ");": 947,
      "au": 948,
      "orld": 949,
      "lect": 950,
      "Ġdet": 951,
      "log": 952,
      "201": 953,
      "fter": 954,
      "ty": 955,
      "ale": 956,
      "...": 957,
      "ĠNew": 958,
      "land": 959,
      "Ġ__": 960,
      "ating": 961,
      "ĠSy": 962,
      "pect": 963,
      "Ġmost": 964,
      "ten": 965,
      "ww": 966,
      "Ġob": 967,
      "Ġsupp": 968,
      "iel": 969,
      "ank": 970,
      "Ġinter": 971,
      "ased": 972,
      "cept": 973,
      "ĠâĢĵ": 974,
      "cle": 975,
      "Ġti": 976,
      "Ġrequ": 977,
      "ute": 978,
      "ax": 979,
      "day": 980,
      "the": 981,
      "à«": 982,
      "ater": 983,
      "Ġsequ": 984,
      "ures": 985,
      "Ġmon": 986,
      "rough": 987,
      "Ġquest": 988,
      "hes": 989,
      "sw": 990,
      "Ġ<": 991,
      "Ġind": 992,
      "Ġdevelop": 993,
      "ĠQu": 994,
      "15": 995,
      "23": 996,
      "mall": 997,
      "ople": 998,
      "Ġmy": 999,
      "ads": 1000,
      "inal": 1001,
      "Ġdi": 1002,
      "ash": 1003,
      "Ġexp": 1004,
      "Ġshould": 1005,
      "Ġbetween": 1006,
      "book": 1007,
      "Ġlong": 1008,
      "ational": 1009,
      "rie": 1010,
      "Ġhel": 1011,
      "view": 1012,
      "ĠÄ": 1013,
      "Ġsame": 1014,
      "ublic": 1015,
      "Ġclass": 1016,
      "cond": 1017,
      "alth": 1018,
      "ĠYou": 1019,
      "Ġcould": 1020,
      "ĠCl": 1021,
      "iven": 1022,
      "Ġchild": 1023,
      "Ġfunction": 1024,
      "\".": 1025,
      "any": 1026,
      "Ġmake": 1027,
      "ull": 1028,
      "Ġproject": 1029,
      "Ġvari": 1030,
      "ants": 1031,
      "Ġ\\$": 1032,
      "be": 1033,
      "ets": 1034,
      "ray": 1035,
      "une": 1036,
      "Ġdef": 1037,
      "Ġ20": 1038,
      "ĠWe": 1039,
      "Ġresult": 1040,
      "St": 1041,
      "ient": 1042,
      "ring": 1043,
      "ert": 1044,
      "ask": 1045,
      "ĠSc": 1046,
      "ious": 1047,
      "Ġmult": 1048,
      "Ġprodu": 1049,
      "Ġrun": 1050,
      "Ġthrough": 1051,
      "Ġgrou": 1052,
      "Ġconst": 1053,
      "Ġright": 1054,
      "cess": 1055,
      "iod": 1056,
      "Ġ15": 1057,
      "Ġdec": 1058,
      "ĠâĢ¢": 1059,
      "ically": 1060,
      "16": 1061,
      "ex": 1062,
      "Ġcur": 1063,
      "à·Ĵ": 1064,
      "Ġpartic": 1065,
      "24": 1066,
      "get": 1067,
      "Ġcre": 1068,
      "Ġinformation": 1069,
      "Ġear": 1070,
      "frac": 1071,
      "Ġà°": 1072,
      "Ġtest": 1073,
      "ĠSe": 1074,
      "ĠCon": 1075,
      "Ġjust": 1076,
      "ield": 1077,
      "13": 1078,
      "ied": 1079,
      "yp": 1080,
      "ature": 1081,
      "vert": 1082,
      "ords": 1083,
      "odel": 1084,
      "==": 1085,
      "Ġac": 1086,
      "arge": 1087,
      "ÂłÂłÂł": 1088,
      "tic": 1089,
      "Ġtri": 1090,
      "ĠAs": 1091,
      "This": 1092,
      "tt": 1093,
      "wn": 1094,
      "Ġdire": 1095,
      "vel": 1096,
      "Ġ2013": 1097,
      "ĠÄĳ": 1098,
      "ran": 1099,
      "Ġrem": 1100,
      "ident": 1101,
      "Ġweek": 1102,
      "Ġexample": 1103,
      "Ġàª": 1104,
      "Ġem": 1105,
      "ĠFor": 1106,
      "Ġext": 1107,
      "Ġyears": 1108,
      "lazed": 1109,
      "Ġsaid": 1110,
      "}\\": 1111,
      "Ð½": 1112,
      "rent": 1113,
      "old": 1114,
      "loy": 1115,
      "Ġpar": 1116,
      "Ġret": 1117,
      "gram": 1118,
      "uch": 1119,
      "Ġ18": 1120,
      "ize": 1121,
      "co": 1122,
      "mber": 1123,
      "á¹": 1124,
      "Ġsin": 1125,
      "ann": 1126,
      "Ġcall": 1127,
      "Ġwell": 1128,
      "ives": 1129,
      "Ġpeople": 1130,
      "ok": 1131,
      "val": 1132,
      "Ġà®": 1133,
      "Ġcal": 1134,
      "omet": 1135,
      "uring": 1136,
      "well": 1137,
      "ript": 1138,
      "ON": 1139,
      "ĠBut": 1140,
      "Ġcommun": 1141,
      "ern": 1142,
      "Ġsystem": 1143,
      "Ġdoes": 1144,
      "Ġtraining": 1145,
      "ivers": 1146,
      "ving": 1147,
      "ðĿ": 1148,
      "Ġmem": 1149,
      "à¶±": 1150,
      "à¶º": 1151,
      "earch": 1152,
      "á¹£": 1153,
      "75": 1154,
      "air": 1155,
      "ict": 1156,
      "Ġmust": 1157,
      "imes": 1158,
      "Ġgener": 1159,
      "ĠHow": 1160,
      "acc": 1161,
      "ffect": 1162,
      "}{": 1163,
      "Ġed": 1164,
      "rest": 1165,
      "Ġpol": 1166,
      "Ġbeca": 1167,
      "Ġbecause": 1168,
      "Ġsur": 1169,
      "Ġfact": 1170,
      "Ġmin": 1171,
      "Ġthree": 1172,
      "ĠRet": 1173,
      "ĠSyri": 1174,
      "Ġhelp": 1175,
      "Ġ_": 1176,
      "ĠÃ": 1177,
      "Ġaw": 1178,
      "Ġafter": 1179,
      "Ġcent": 1180,
      "ility": 1181,
      "Ġloc": 1182,
      "Ġ16": 1183,
      "Ġgreat": 1184,
      "ĠĠĠĠĠĠĠ": 1185,
      "à¨¾": 1186,
      "Ġproblem": 1187,
      "Ġ__[": 1188,
      "200": 1189,
      "pon": 1190,
      "Ġsqu": 1191,
      "Ġsmall": 1192,
      "uth": 1193,
      "acebook": 1194,
      "Ġfollowing": 1195,
      ".\"": 1196,
      "18": 1197,
      "do": 1198,
      "Ġvalue": 1199,
      ")__": 1200,
      "Ġhigh": 1201,
      "ĠSh": 1202,
      "ĠTe": 1203,
      "nc": 1204,
      "Ġche": 1205,
      "Ġdown": 1206,
      "ily": 1207,
      "Ġevery": 1208,
      "ithm": 1209,
      "erson": 1210,
      "ĠOr": 1211,
      "Ġplay": 1212,
      "sp": 1213,
      "Ġent": 1214,
      "Ġher": 1215,
      "erial": 1216,
      "Ġfound": 1217,
      "Ġint": 1218,
      "Ġstudents": 1219,
      "AT": 1220,
      "fig": 1221,
      "pen": 1222,
      "ually": 1223,
      "}$$": 1224,
      "Ġdist": 1225,
      "ĠTo": 1226,
      "ĠHe": 1227,
      "Ġdifferent": 1228,
      "Ġest": 1229,
      "Ġshe": 1230,
      "other": 1231,
      "ĠFacebook": 1232,
      "âĢĵ": 1233,
      "RE": 1234,
      "mat": 1235,
      "right": 1236,
      "ret": 1237,
      "Ġstart": 1238,
      "ists": 1239,
      "come": 1240,
      "ĠStud": 1241,
      "May": 1242,
      "Ġway": 1243,
      "Ġnow": 1244,
      "ides": 1245,
      "akes": 1246,
      "rieved": 1247,
      "33": 1248,
      "Re": 1249,
      "Ġcomple": 1250,
      "Ġ199": 1251,
      "ype": 1252,
      "ÃŃ": 1253,
      "Ġ:": 1254,
      "ined": 1255,
      "ower": 1256,
      "Ġvacc": 1257,
      "oween": 1258,
      "hip": 1259,
      "Ġless": 1260,
      "Ġcommon": 1261,
      "We": 1262,
      "gy": 1263,
      "rite": 1264,
      "vent": 1265,
      "Ġschool": 1266,
      "Ġcount": 1267,
      "Ġbl": 1268,
      "iles": 1269,
      "Ġlook": 1270,
      "Ġyd": 1271,
      "Ġhealth": 1272,
      "ared": 1273,
      "Ġel": 1274,
      "Ġatt": 1275,
      "asted": 1276,
      "Ġtrans": 1277,
      "owever": 1278,
      "swer": 1279,
      "Ġend": 1280,
      "itive": 1281,
      "Ġca": 1282,
      "Ġown": 1283,
      "istant": 1284,
      "à·Ģ": 1285,
      "angu": 1286,
      "ized": 1287,
      "ĠWhat": 1288,
      "led": 1289,
      "ware": 1290,
      "Ġ/": 1291,
      "ats": 1292,
      "Ġref": 1293,
      "Ġline": 1294,
      "ott": 1295,
      "ĠRes": 1296,
      "Ġdeg": 1297,
      "aking": 1298,
      "à·ı": 1299,
      "Ġbuild": 1300,
      "ners": 1301,
      "eting": 1302,
      "http": 1303,
      "ethod": 1304,
      ".,": 1305,
      "gan": 1306,
      "ier": 1307,
      "ene": 1308,
      "Ġcar": 1309,
      "ĠPh": 1310,
      "ider": 1311,
      "round": 1312,
      "ÂłÂłÂłÂłÂłÂłÂłÂł": 1313,
      "ĠUnited": 1314,
      "Ġmade": 1315,
      "14": 1316,
      "Ġbeing": 1317,
      "elf": 1318,
      "Ġagain": 1319,
      "--------": 1320,
      "ology": 1321,
      "ĠRetrieved": 1322,
      "36": 1323,
      "ness": 1324,
      "oy": 1325,
      "ole": 1326,
      "Ġcor": 1327,
      "Ġfl": 1328,
      "Ġback": 1329,
      "ĠAll": 1330,
      "Ġeven": 1331,
      "ula": 1332,
      "ify": 1333,
      "####": 1334,
      "Ġappro": 1335,
      "05": 1336,
      "ips": 1337,
      "ner": 1338,
      "ense": 1339,
      "Ġboth": 1340,
      "Ġmodel": 1341,
      "ĠSp": 1342,
      "Ġgood": 1343,
      "ife": 1344,
      "Ġperiod": 1345,
      "new": 1346,
      "ream": 1347,
      "orth": 1348,
      "ane": 1349,
      "Ġpop": 1350,
      "Ġmed": 1351,
      "Ġ11": 1352,
      "Ġprogram": 1353,
      "Ġimm": 1354,
      "Ġnumbers": 1355,
      "ox": 1356,
      "Ġread": 1357,
      "imal": 1358,
      "Ġgiven": 1359,
      "man": 1360,
      "mary": 1361,
      "not": 1362,
      "rate": 1363,
      "ision": 1364,
      "ases": 1365,
      "Ġequation": 1366,
      "ength": 1367,
      "sc": 1368,
      "Ġ}": 1369,
      "ina": 1370,
      "Ġ--": 1371,
      "Ġhere": 1372,
      "iversity": 1373,
      "ER": 1374,
      "line": 1375,
      "Ã³": 1376,
      "Ġcir": 1377,
      "Ġfam": 1378,
      "stand": 1379,
      "Ġexper": 1380,
      "Ġcontin": 1381,
      "Ġinterest": 1382,
      "If": 1383,
      "ipp": 1384,
      "rat": 1385,
      "Ġcase": 1386,
      "arm": 1387,
      "Ġinf": 1388,
      "ource": 1389,
      "Ġpercent": 1390,
      "Ġsupport": 1391,
      "ger": 1392,
      "ired": 1393,
      "rans": 1394,
      "Ġmuch": 1395,
      "Ġday": 1396,
      "ĠRock": 1397,
      "illed": 1398,
      "ĠHalloween": 1399,
      "25": 1400,
      "file": 1401,
      "uff": 1402,
      "Ġ.": 1403,
      "Ġvery": 1404,
      "ison": 1405,
      "ots": 1406,
      "Ġarea": 1407,
      "Ġshow": 1408,
      "Ġimport": 1409,
      "Ġsequence": 1410,
      "Ġmulti": 1411,
      "ĠZ": 1412,
      "ote": 1413,
      "ĠBe": 1414,
      "IT": 1415,
      "min": 1416,
      "Ñĭ": 1417,
      "Ġwrit": 1418,
      "Ġworld": 1419,
      "ĠGM": 1420,
      "à¶»": 1421,
      "à·ĥ": 1422,
      "gr": 1423,
      "mb": 1424,
      "Ã©": 1425,
      "Ð»": 1426,
      "raw": 1427,
      "Ġsecond": 1428,
      "Wh": 1429,
      "Ðµ": 1430,
      "Ġtem": 1431,
      "Ġmethod": 1432,
      "Ġlarge": 1433,
      "ames": 1434,
      "oci": 1435,
      "____": 1436,
      "Ġmonth": 1437,
      "40": 1438,
      "gor": 1439,
      "ted": 1440,
      "anc": 1441,
      "ason": 1442,
      "auce": 1443,
      "Ġcurrent": 1444,
      "Ġtriang": 1445,
      "90": 1446,
      "Ass": 1447,
      "bs": 1448,
      "alk": 1449,
      "ional": 1450,
      "Ġallow": 1451,
      "à¨¿": 1452,
      "ĠJune": 1453,
      "Ġ$$\\": 1454,
      "doi": 1455,
      "AR": 1456,
      "ade": 1457,
      "pos": 1458,
      "rid": 1459,
      "Ġá»į": 1460,
      "Ġsum": 1461,
      "Ġcode": 1462,
      "Ġrese": 1463,
      "Ġ23": 1464,
      "Ġexpl": 1465,
      "ivid": 1466,
      "Ġservice": 1467,
      "Ġdirect": 1468,
      "80": 1469,
      "gin": 1470,
      "ron": 1471,
      "iness": 1472,
      "Ġav": 1473,
      "here": 1474,
      "Ġdon": 1475,
      "ĠSchool": 1476,
      "chn": 1477,
      "Ġgraph": 1478,
      "ĠPl": 1479,
      "Ġstate": 1480,
      "Ġwhile": 1481,
      "gg": 1482,
      "lish": 1483,
      "vir": 1484,
      "ished": 1485,
      "lection": 1486,
      "ivity": 1487,
      "ples": 1488,
      "Ġplace": 1489,
      "ĠStates": 1490,
      "ission": 1491,
      "Ġincluding": 1492,
      "Ġchildren": 1493,
      "dition": 1494,
      "par": 1495,
      "yle": 1496,
      "ÑĢ": 1497,
      "ÑĤ": 1498,
      "à¥": 1499,
      "Ġpract": 1500,
      "Ġgen": 1501,
      "Ġ25": 1502,
      "ĠEng": 1503,
      "ĠThey": 1504,
      "à¶Ń": 1505,
      "Ġpartners": 1506,
      "Ġaddition": 1507,
      "ĠAmerican": 1508,
      "Ġquestion": 1509,
      "AN": 1510,
      "User": 1511,
      "Ġsy": 1512,
      "etic": 1513,
      "Ġreport": 1514,
      "Ġlast": 1515,
      "Ġbefore": 1516,
      "ters": 1517,
      "Ġdisc": 1518,
      "ticle": 1519,
      "Ġreturn": 1520,
      "Ġcalcul": 1521,
      "22": 1522,
      "^{": 1523,
      "ience": 1524,
      "less": 1525,
      "Ġsit": 1526,
      "Ġperson": 1527,
      "Ġthose": 1528,
      "Ġlist": 1529,
      "imate": 1530,
      "Ġ100": 1531,
      "Ġlear": 1532,
      "Ġdifference": 1533,
      "math": 1534,
      "ober": 1535,
      "Æ°": 1536,
      "Ġ|": 1537,
      "Ġsign": 1538,
      "itude": 1539,
      "Ġincre": 1540,
      "ĠApp": 1541,
      "amp": 1542,
      "....": 1543,
      "ader": 1544,
      "Ġ``": 1545,
      "17": 1546,
      "30": 1547,
      "An": 1548,
      "Ġz": 1549,
      "Ġtake": 1550,
      "Ġpublic": 1551,
      "icro": 1552,
      "ication": 1553,
      "Ġmet": 1554,
      "Ġla": 1555,
      "Ġstill": 1556,
      "Ġorig": 1557,
      "ĠSyrian": 1558,
      "ĠRockwell": 1559,
      "lab": 1560,
      "Ġpass": 1561,
      "Ġmark": 1562,
      "Ġ17": 1563,
      "âĢľ": 1564,
      "ulation": 1565,
      "bra": 1566,
      "iqu": 1567,
      "à´": 1568,
      "ĠSo": 1569,
      "Ġlangu": 1570,
      "ims": 1571,
      "ĠPer": 1572,
      "ried": 1573,
      "ĠLat": 1574,
      "ĠOn": 1575,
      "ĠOct": 1576,
      "oh": 1577,
      "sal": 1578,
      "ule": 1579,
      "âĲ": 1580,
      "Ġspe": 1581,
      "Ġfood": 1582,
      "Ġeas": 1583,
      "Ġlim": 1584,
      "Ġgu": 1585,
      "urt": 1586,
      "Ġkey": 1587,
      "Ġmaterial": 1588,
      "Assistant": 1589,
      "viron": 1590,
      "47": 1591,
      "Ġside": 1592,
      "ality": 1593,
      "Ġpa": 1594,
      "Ġdid": 1595,
      "Ġhtt": 1596,
      "ural": 1597,
      "ume": 1598,
      "ĠThere": 1599,
      "Ġmeas": 1600,
      "à¯ģ": 1601,
      "ference": 1602,
      "ee": 1603,
      "mustard": 1604,
      "ves": 1605,
      "ather": 1606,
      "Ġins": 1607,
      "amet": 1608,
      "und": 1609,
      "ĠMustard": 1610,
      "Ġorder": 1611,
      "Ġ**": 1612,
      "Ġchange": 1613,
      "Ġleft": 1614,
      "Ġcontain": 1615,
      "ruct": 1616,
      "à©Ģ": 1617,
      "26": 1618,
      "99": 1619,
      "SC": 1620,
      "ii": 1621,
      "nut": 1622,
      "ration": 1623,
      "work": 1624,
      "Ġfig": 1625,
      "aster": 1626,
      "Ġmeans": 1627,
      "Ġstudy": 1628,
      "à±į": 1629,
      "Ġformula": 1630,
      "Ġunderstand": 1631,
      "35": 1632,
      "rect": 1633,
      "Ġcost": 1634,
      "Ġwá»įn": 1635,
      "Ġfield": 1636,
      "Ġinc": 1637,
      "usiness": 1638,
      "vern": 1639,
      "ands": 1640,
      "Ġcomment": 1641,
      "ources": 1642,
      "àª¾": 1643,
      "ĠComm": 1644,
      "Ġposs": 1645,
      "Ġtriangle": 1646,
      "21": 1647,
      "cript": 1648,
      "po": 1649,
      "rist": 1650,
      "outh": 1651,
      "Ġthink": 1652,
      "ross": 1653,
      "Ġni": 1654,
      "Ġ14": 1655,
      "ument": 1656,
      "Ġwithout": 1657,
      "Ġproblems": 1658,
      "Ġposted": 1659,
      ".](": 1660,
      "pend": 1661,
      "tle": 1662,
      "ĠX": 1663,
      "erc": 1664,
      "isc": 1665,
      "Ġmight": 1666,
      "ĠAm": 1667,
      "Ġlit": 1668,
      "chicken": 1669,
      "ĠInd": 1670,
      "ĠMark": 1671,
      "load": 1672,
      "lock": 1673,
      "Ġteam": 1674,
      "ribut": 1675,
      "Ġrepresent": 1676,
      "command": 1677,
      "![": 1678,
      "IN": 1679,
      "Pro": 1680,
      "di": 1681,
      "oid": 1682,
      "ral": 1683,
      "Ġopt": 1684,
      "alys": 1685,
      "Ġfree": 1686,
      "Ġmod": 1687,
      "Ġname": 1688,
      "Ġgrow": 1689,
      "Ġprocess": 1690,
      "Ġwithin": 1691,
      "Ġke": 1692,
      "Ġbetter": 1693,
      "Ġcalled": 1694,
      "89": 1695,
      "ext": 1696,
      "uc": 1697,
      "uk": 1698,
      "Ġfile": 1699,
      "Ġtool": 1700,
      "ĠSal": 1701,
      "ĠCar": 1702,
      "Ġbel": 1703,
      "ĠMath": 1704,
      "Ġprote": 1705,
      "Ġlevel": 1706,
      "Ġabove": 1707,
      "ĠChicken": 1708,
      "ĠUniversity": 1709,
      "Ġimportant": 1710,
      "LE": 1711,
      "Ġfew": 1712,
      "inger": 1713,
      "stit": 1714,
      "Ġreview": 1715,
      "illion": 1716,
      "Ġexam": 1717,
      "Ġ30": 1718,
      "ially": 1719,
      "duction": 1720,
      "ailable": 1721,
      "newcommand": 1722,
      "\",": 1723,
      "60": 1724,
      "It": 1725,
      "_{": 1726,
      "af": 1727,
      "ination": 1728,
      "ences": 1729,
      "Ġanswer": 1730,
      "Ġbelow": 1731,
      "arent": 1732,
      "ording": 1733,
      "à©ĩ": 1734,
      "ĠâĪ": 1735,
      "www": 1736,
      "Ġsay": 1737,
      "Ġbest": 1738,
      "ety": 1739,
      "ird": 1740,
      "ĠĠĠĠĠ": 1741,
      "Ġunit": 1742,
      "ccess": 1743,
      "Ġknown": 1744,
      "Ġinclude": 1745,
      "vironment": 1746,
      "cur": 1747,
      "sing": 1748,
      "Ð¸": 1749,
      "Ñĥ": 1750,
      "Ġwant": 1751,
      "Ġpresent": 1752,
      "raq": 1753,
      "Ġ22": 1754,
      "ries": 1755,
      "Ġask": 1756,
      "Ġproper": 1757,
      "à®¿": 1758,
      "ĠâĢĺ": 1759,
      "ffic": 1760,
      "ftware": 1761,
      "ĠLatin": 1762,
      ",\"": 1763,
      "45": 1764,
      "Ph": 1765,
      "SB": 1766,
      "ght": 1767,
      "na": 1768,
      "sum": 1769,
      "ward": 1770,
      "Ġ#": 1771,
      "itions": 1772,
      "Ġpur": 1773,
      "Ġoften": 1774,
      "etc": 1775,
      "Ġiss": 1776,
      "Ġgas": 1777,
      "Ġnext": 1778,
      "Ġpoints": 1779,
      "Ġinvol": 1780,
      ">>": 1781,
      "As": 1782,
      "Ex": 1783,
      "OM": 1784,
      "ST": 1785,
      "for": 1786,
      "}{\\": 1787,
      "ĠÂł": 1788,
      "Ġaround": 1789,
      "atist": 1790,
      "Ġangle": 1791,
      "ules": 1792,
      "ĠEqu": 1793,
      "anges": 1794,
      "Ġvalues": 1795,
      "Ch": 1796,
      "ler": 1797,
      "Ä±": 1798,
      "Ð´": 1799,
      "atch": 1800,
      "Ġtot": 1801,
      "Ġtoget": 1802,
      "ilar": 1803,
      "ĠIraq": 1804,
      "ĠPe": 1805,
      "veral": 1806,
      "ified": 1807,
      "andom": 1808,
      "ework": 1809,
      "ĠĠĠĠĠĠĠĠĠĠĠ": 1810,
      "ðĿĳ": 1811,
      "Ġtogether": 1812,
      ".âĢĿ": 1813,
      "PC": 1814,
      "ait": 1815,
      "ball": 1816,
      "fic": 1817,
      "uck": 1818,
      "Ðº": 1819,
      "ond": 1820,
      "Ġdem": 1821,
      "ables": 1822,
      "artment": 1823,
      "à°¿": 1824,
      "ourn": 1825,
      "version": 1826,
      "Ġtechn": 1827,
      "Ġprovide": 1828,
      "Ġcheck": 1829,
      "Ġresearch": 1830,
      "alysis": 1831,
      "jor": 1832,
      "ml": 1833,
      "name": 1834,
      "oes": 1835,
      "py": 1836,
      "sin": 1837,
      "Ð¾": 1838,
      "Ġopen": 1839,
      "Ġfra": 1840,
      "left": 1841,
      "Ġlength": 1842,
      "ĠIs": 1843,
      "ĠEar": 1844,
      "à¶ļ": 1845,
      "Ġcreate": 1846,
      "uthor": 1847,
      "ault": 1848,
      "che": 1849,
      "ront": 1850,
      "ucle": 1851,
      "Ġident": 1852,
      "Ġopp": 1853,
      "Ġmain": 1854,
      "Ġduring": 1855,
      "Ġev": 1856,
      "Ġeffect": 1857,
      "Ġ28": 1858,
      "ĠMay": 1859,
      "à®ķ": 1860,
      "Ġequal": 1861,
      "laze": 1862,
      "Ġdeterm": 1863,
      "ransform": 1864,
      "lu": 1865,
      "Ġfac": 1866,
      "Ġanother": 1867,
      "Ġ24": 1868,
      "idence": 1869,
      "ĠUN": 1870,
      "ressing": 1871,
      "Ġsquare": 1872,
      "Ġavailable": 1873,
      "()": 1874,
      "For": 1875,
      "gar": 1876,
      "glazed": 1877,
      "ior": 1878,
      "wh": 1879,
      "}$": 1880,
      "ero": 1881,
      "itor": 1882,
      "Ġcap": 1883,
      "Ġfin": 1884,
      "ĠCont": 1885,
      "Ġ21": 1886,
      "Ġseveral": 1887,
      "à·Ķ": 1888,
      "Ġmean": 1889,
      "Ġà¨¦": 1890,
      "Ġdevelopment": 1891,
      "ertain": 1892,
      "ĠGMT": 1893,
      "):": 1894,
      "aa": 1895,
      "cards": 1896,
      "nect": 1897,
      "por": 1898,
      "ploy": 1899,
      "ĠÂ": 1900,
      "ither": 1901,
      "Ġcle": 1902,
      "Ġbas": 1903,
      "ĠSte": 1904,
      "Ġreal": 1905,
      "ĠGlazed": 1906,
      "acter": 1907,
      "ĠReads": 1908,
      "ĠArticle": 1909,
      "ological": 1910,
      "39": 1911,
      "ital": 1912,
      "Ġcare": 1913,
      "ouse": 1914,
      "Ġrest": 1915,
      "oles": 1916,
      "uss": 1917,
      "Ġgame": 1918,
      "ĠGu": 1919,
      "à¨°": 1920,
      "ĠLe": 1921,
      "Ġchar": 1922,
      "Ġplan": 1923,
      "Ġlet": 1924,
      "ooks": 1925,
      "ovember": 1926,
      "profile": 1927,
      "Ġprovid": 1928,
      "Ġterms": 1929,
      "Ġresults": 1930,
      "Ġmembers": 1931,
      "ai": 1932,
      "mit": 1933,
      "ops": 1934,
      "ta": 1935,
      "ones": 1936,
      "Ġoper": 1937,
      "Ġpri": 1938,
      "etwork": 1939,
      "Ġ13": 1940,
      "Ġ26": 1941,
      "gebra": 1942,
      "ocial": 1943,
      "ocument": 1944,
      "Ġ2011": 1945,
      "Ġplac": 1946,
      "Ġ$\\": 1947,
      "Ġgroup": 1948,
      "Ġcommunity": 1949,
      "Ġlanguage": 1950,
      "29": 1951,
      "To": 1952,
      "li": 1953,
      "Ġtyp": 1954,
      "Ġable": 1955,
      "reen": 1956,
      "Ġsk": 1957,
      "Ġsl": 1958,
      "Ġpay": 1959,
      "Ġbased": 1960,
      "Ġtop": 1961,
      "Ġlarg": 1962,
      "ows": 1963,
      "0000": 1964,
      "Ġstand": 1965,
      "à¶¯": 1966,
      "ograph": 1967,
      "ĠChrist": 1968,
      "Ġdise": 1969,
      "weet": 1970,
      "Ġspecific": 1971,
      "Ġquestions": 1972,
      "Ġsince": 1973,
      "AP": 1974,
      "IC": 1975,
      "ION": 1976,
      "cd": 1977,
      "my": 1978,
      "rm": 1979,
      "Ġtax": 1980,
      "hemat": 1981,
      "Ġcour": 1982,
      "Ġinit": 1983,
      "ĠSol": 1984,
      "ĠChe": 1985,
      "ĠCan": 1986,
      "verage": 1987,
      "Ġvis": 1988,
      "ody": 1989,
      "Ġeng": 1990,
      "Ġtotal": 1991,
      "EN": 1992,
      "ba": 1993,
      "âĶ": 1994,
      "atab": 1995,
      "Ġsom": 1996,
      "icy": 1997,
      "Ġhum": 1998,
      "ava": 1999,
      "Ġrespon": 2000,
      "Ġsolve": 2001,
      "ĠComp": 2002,
      "ready": 2003,
      "Ġservices": 2004,
      "ĠStudents": 2005,
      "Æ°á»": 2006,
      "ĠOctober": 2007,
      "Ġbelie": 2008,
      "27": 2009,
      "93": 2010,
      "ha": 2011,
      "Ġes": 2012,
      "Ġwar": 2013,
      "Ġfour": 2014,
      "ĠSystem": 2015,
      "ĠMon": 2016,
      "els": 2017,
      "ĠGraph": 2018,
      "ĠNovember": 2019,
      "áº¿": 2020,
      "Ġcla": 2021,
      "Ġener": 2022,
      "Ġremain": 2023,
      "gorithm": 2024,
      "100": 2025,
      "55": 2026,
      "64": 2027,
      "SS": 2028,
      "Ġtype": 2029,
      "Ġclo": 2030,
      "Ġcos": 2031,
      "ising": 2032,
      "Ġfil": 2033,
      "Ġmath": 2034,
      "Ġele": 2035,
      "Ġgra": 2036,
      "Ġgive": 2037,
      "ĠHowever": 2038,
      "ization": 2039,
      "Ġdesign": 2040,
      "ares": 2041,
      "aff": 2042,
      "by": 2043,
      "ium": 2044,
      "Ġtre": 2045,
      "arv": 2046,
      "ought": 2047,
      "ĠAS": 2048,
      "Ġlife": 2049,
      "ĠCol": 2050,
      "ĠPost": 2051,
      "ability": 2052,
      "Ġvol": 2053,
      "à°¨": 2054,
      "ruit": 2055,
      "Ġapplic": 2056,
      "Ġagainst": 2057,
      "AM": 2058,
      "ding": 2059,
      "tain": 2060,
      "itle": 2061,
      "ana": 2062,
      "ism": 2063,
      "Ġocc": 2064,
      "Ġhome": 2065,
      "ĠPM": 2066,
      "though": 2067,
      "---": 2068,
      "ĠâĢĶ": 2069,
      "aving": 2070,
      "ression": 2071,
      "Ġgovern": 2072,
      "Ġcomplete": 2073,
      "Ġtemper": 2074,
      "SBN": 2075,
      "Ġenergy": 2076,
      "upp": 2077,
      "ways": 2078,
      "Ġá¹£": 2079,
      "ese": 2080,
      "ars": 2081,
      "Ġpres": 2082,
      "Ġbig": 2083,
      "Ġdest": 2084,
      "Ġhapp": 2085,
      "ĠShe": 2086,
      "ĠSearch": 2087,
      "Ġrece": 2088,
      "Ġredu": 2089,
      "ĠCal": 2090,
      "ĠISBN": 2091,
      "Ġimp": 2092,
      "Ġcontro": 2093,
      "ramework": 2094,
      "Ġspecial": 2095,
      "Ġaccess": 2096,
      "Ġconstant": 2097,
      "ithmetic": 2098,
      "28": 2099,
      "Com": 2100,
      "bo": 2101,
      "hips": 2102,
      "rim": 2103,
      "ton": 2104,
      "Ð³": 2105,
      "ances": 2106,
      "Ġold": 2107,
      "Ġpress": 2108,
      "Ġhig": 2109,
      "Ġlo": 2110,
      "Ġconf": 2111,
      "There": 2112,
      "ĠĠĠĠĠĠĠĠĠĠĠĠĠĠĠĠ": 2113,
      "Ġdepend": 2114,
      "ency": 2115,
      "Ġparticip": 2116,
      "====": 2117,
      "Ġcirc": 2118,
      "atabase": 2119,
      "=\"": 2120,
      "OR": 2121,
      "date": 2122,
      "key": 2123,
      "ls": 2124,
      "Ĥ¬": 2125,
      "ales": 2126,
      "Ġpage": 2127,
      "Ġpack": 2128,
      "Ġant": 2129,
      "Ġmass": 2130,
      "Ġlight": 2131,
      "ĠPart": 2132,
      "ĠBl": 2133,
      "idd": 2134,
      "ĠFun": 2135,
      "Ġrange": 2136,
      "ustom": 2137,
      "à°¾": 2138,
      "Ġdecimal": 2139,
      "ficult": 2140,
      "</": 2141,
      "Al": 2142,
      "but": 2143,
      "gs": 2144,
      "nh": 2145,
      "pi": 2146,
      "Ġer": 2147,
      "Ġword": 2148,
      "Ġpat": 2149,
      "Ġport": 2150,
      "Ġbre": 2151,
      "Ġdel": 2152,
      "Ġdry": 2153,
      "ĠAt": 2154,
      "Ġ27": 2155,
      "ada": 2156,
      "ĠGe": 2157,
      "ĠUS": 2158,
      "Ġunt": 2159,
      "ĠThat": 2160,
      "ails": 2161,
      "ĠYork": 2162,
      "Ġcontinu": 2163,
      "ournal": 2164,
      "38": 2165,
      "48": 2166,
      "OT": 2167,
      "You": 2168,
      "gen": 2169,
      "lished": 2170,
      "of": 2171,
      "ris": 2172,
      "test": 2173,
      "Ġtry": 2174,
      "Ġtreat": 2175,
      "Ġtimes": 2176,
      "head": 2177,
      "Ġbi": 2178,
      "oun": 2179,
      "Ġreally": 2180,
      "ĠPo": 2181,
      "ift": 2182,
      "Ġalready": 2183,
      "Ġitem": 2184,
      "ival": 2185,
      "ived": 2186,
      "Ġ2010": 2187,
      "ĠReg": 2188,
      "Ġ50": 2189,
      "duct": 2190,
      "ething": 2191,
      "obile": 2192,
      "Ġfigure": 2193,
      "09": 2194,
      "67": 2195,
      "AL": 2196,
      "CT": 2197,
      "ae": 2198,
      "car": 2199,
      "ered": 2200,
      "face": 2201,
      "now": 2202,
      "range": 2203,
      "âĪ": 2204,
      "Ġpred": 2205,
      "Ġann": 2206,
      "Ġbo": 2207,
      "Ġmov": 2208,
      "Ġinde": 2209,
      "Ġlater": 2210,
      "ids": 2211,
      "Ġste": 2212,
      "ĠDep": 2213,
      "hers": 2214,
      "play": 2215,
      "Ġimpro": 2216,
      "Ġenc": 2217,
      "Ġcomput": 2218,
      "Ġworks": 2219,
      "Ġprice": 2220,
      "Ġdeploy": 2221,
      "ĠAmericans": 2222,
      "Ġobject": 2223,
      "Ġlearn": 2224,
      "Ġpossible": 2225,
      "So": 2226,
      "fit": 2227,
      "sy": 2228,
      "Ġaut": 2229,
      "erv": 2230,
      "ering": 2231,
      "atures": 2232,
      "aring": 2233,
      "Ġdiv": 2234,
      "Ġhand": 2235,
      "Ġeither": 2236,
      "Ġbecome": 2237,
      "urs": 2238,
      "ury": 2239,
      "ately": 2240,
      "lob": 2241,
      "ĠOf": 2242,
      "ĠOne": 2243,
      "osp": 2244,
      "oss": 2245,
      "Ġhead": 2246,
      "áº£": 2247,
      "ension": 2248,
      "Ġresources": 2249,
      "Ġphys": 2250,
      "Ġdesc": 2251,
      "Ġinstall": 2252,
      "Ġlocal": 2253,
      ",âĢĿ": 2254,
      "br": 2255,
      "ele": 2256,
      "ians": 2257,
      "ks": 2258,
      "ling": 2259,
      "rong": 2260,
      "alu": 2261,
      "ĠAb": 2262,
      "ĠBrit": 2263,
      "ĠGra": 2264,
      "ĠThese": 2265,
      "ached": 2266,
      "istory": 2267,
      "plement": 2268,
      "ĠInter": 2269,
      "ordin": 2270,
      "ibr": 2271,
      "Ġsolution": 2272,
      "Ġgoing": 2273,
      "Ġamount": 2274,
      "Ġassoci": 2275,
      "Ġgroups": 2276,
      "Ġmaterials": 2277,
      "Ġmeasure": 2278,
      "atistics": 2279,
      "ĠEquations": 2280,
      "uclear": 2281,
      "04": 2282,
      "86": 2283,
      "92": 2284,
      "Feb": 2285,
      "pri": 2286,
      "pons": 2287,
      "vious": 2288,
      "ince": 2289,
      "Ġcertain": 2290,
      "ico": 2291,
      "amb": 2292,
      "ĠMar": 2293,
      "ĠMed": 2294,
      "âĢ¦": 2295,
      "ĠBi": 2296,
      "Ġyoung": 2297,
      "umn": 2298,
      "illa": 2299,
      "Ġview": 2300,
      "istic": 2301,
      "iving": 2302,
      "Ġsuccess": 2303,
      "Ġadv": 2304,
      "Ġenvironment": 2305,
      "ĠAmerica": 2306,
      "Ġindivid": 2307,
      "Ġparticular": 2308,
      "Ġbuilding": 2309,
      "Ġcorrect": 2310,
      "56": 2311,
      "],": 2312,
      "bread": 2313,
      "fl": 2314,
      "Ġide": 2315,
      "atic": 2316,
      "Ġsing": 2317,
      "Ġsort": 2318,
      "Ġwind": 2319,
      "Ġfinal": 2320,
      "Ġfull": 2321,
      "Ġdays": 2322,
      "ĠAct": 2323,
      "Ġnh": 2324,
      "Ġlat": 2325,
      "rain": 2326,
      "cel": 2327,
      "ĠRo": 2328,
      "à¶¸": 2329,
      "ears": 2330,
      "Ġsugg": 2331,
      "Ġwhole": 2332,
      "Ġfunctions": 2333,
      "Ġprison": 2334,
      "Ġactiv": 2335,
      "pril": 2336,
      "ometry": 2337,
      "Ġawá»įn": 2338,
      "ameter": 2339,
      "Phone": 2340,
      "Ġsomething": 2341,
      "Ġsuggest": 2342,
      "'re": 2343,
      "76": 2344,
      "AD": 2345,
      "rig": 2346,
      "yth": 2347,
      "âĤ¬": 2348,
      "Ġáº¹": 2349,
      "atory": 2350,
      "Ġsite": 2351,
      "Ġput": 2352,
      "Ġpub": 2353,
      "ental": 2354,
      "ĠAP": 2355,
      "Ġnon": 2356,
      "ĠDes": 2357,
      "Ġcome": 2358,
      "Ġexpect": 2359,
      "à°Ĥ": 2360,
      "Ġshort": 2361,
      "Ġequations": 2362,
      "Ġsimilar": 2363,
      "Ġrequire": 2364,
      "Ġpopulation": 2365,
      "Ġfamil": 2366,
      "Ġdisease": 2367,
      "down": 2368,
      "mpt": 2369,
      "run": 2370,
      "ators": 2371,
      "enn": 2372,
      "enom": 2373,
      "Ġcustom": 2374,
      "Ġelect": 2375,
      "ĠCent": 2376,
      "ĠPre": 2377,
      "resh": 2378,
      "Ġorgan": 2379,
      "agement": 2380,
      "Ġcontent": 2381,
      "serv": 2382,
      "à±ģ": 2383,
      "Ġsimple": 2384,
      "Ġexperience": 2385,
      "Ġpressure": 2386,
      "bor": 2387,
      "ches": 2388,
      "ges": 2389,
      "oice": 2390,
      "Ġage": 2391,
      "Ġsw": 2392,
      "Ġparent": 2393,
      "edi": 2394,
      "Ġbase": 2395,
      "uture": 2396,
      "verse": 2397,
      "Ġalways": 2398,
      "ĠDay": 2399,
      "nder": 2400,
      "ĠOut": 2401,
      "ocus": 2402,
      "Ġ31": 2403,
      "àª°": 2404,
      "Ġleast": 2405,
      "ĠState": 2406,
      "roup": 2407,
      "ÂłÂłÂłÂłÂłÂłÂł": 2408,
      "Ġspace": 2409,
      "Ġ2007": 2410,
      "Ġtrue": 2411,
      "Ġinvest": 2412,
      "Ġearly": 2413,
      "Ġeduc": 2414,
      "ratic": 2415,
      "Ġmultiple": 2416,
      "Ġpaper": 2417,
      "Ġkeep": 2418,
      "(\\": 2419,
      "ET": 2420,
      "Gener": 2421,
      "][": 2422,
      "ead": 2423,
      "fs": 2424,
      "sauce": 2425,
      "Ã¬": 2426,
      "Ġetc": 2427,
      "Ġair": 2428,
      "itch": 2429,
      "Ġpower": 2430,
      "Ġblog": 2431,
      "Ġmen": 2432,
      "Ġmove": 2433,
      "Ġmiss": 2434,
      "ilities": 2435,
      "ĠAug": 2436,
      "ĠSauce": 2437,
      "roasted": 2438,
      "etric": 2439,
      "Ġlow": 2440,
      "rab": 2441,
      "olution": 2442,
      "otat": 2443,
      "Ġbeh": 2444,
      "ĠWhen": 2445,
      "ĠWorld": 2446,
      "riend": 2447,
      "ĠGo": 2448,
      "ump": 2449,
      "Ġ2006": 2450,
      "Ġaccount": 2451,
      "ĠQuest": 2452,
      "Ġvaccine": 2453,
      "labor": 2454,
      "ique": 2455,
      ")\\": 2456,
      "34": 2457,
      "Ìģ": 2458,
      "Ñģ": 2459,
      "Ø§": 2460,
      "Ġsi": 2461,
      "Ġwater": 2462,
      "array": 2463,
      "eds": 2464,
      "Ġdog": 2465,
      "Ġhom": 2466,
      "Ġrelease": 2467,
      "Ġlaw": 2468,
      "utions": 2469,
      "ush": 2470,
      "ĠIm": 2471,
      "ado": 2472,
      "ĠBy": 2473,
      "ĠFl": 2474,
      "ĠFind": 2475,
      "Ġareas": 2476,
      "Ġcond": 2477,
      "Ġvir": 2478,
      "à¨¸": 2479,
      "à®¤": 2480,
      "à®°": 2481,
      "ended": 2482,
      "Ġcannot": 2483,
      "ogn": 2484,
      "Ġimplement": 2485,
      "Ġperform": 2486,
      "Ġarithmetic": 2487,
      "ification": 2488,
      "Ġrecord": 2489,
      "Ġincluded": 2490,
      "encies": 2491,
      "ĠÃ¢": 2492,
      "ledge": 2493,
      "iddle": 2494,
      "',": 2495,
      "54": 2496,
      "Ad": 2497,
      "MA": 2498,
      "Qu": 2499,
      "Se": 2500,
      "back": 2501,
      "Ġtable": 2502,
      "inter": 2503,
      "requ": 2504,
      "Ġbene": 2505,
      "Ġmoney": 2506,
      "Ġmillion": 2507,
      "Ġdri": 2508,
      "Ġdocument": 2509,
      "roduction": 2510,
      "Ġrecent": 2511,
      "Ġlog": 2512,
      "ĠCor": 2513,
      "ĠPlease": 2514,
      "ĠWrite": 2515,
      "ĠExt": 2516,
      "Ġconvert": 2517,
      "Ġconfig": 2518,
      "Ġdev": 2519,
      "à¨²": 2520,
      "ĠNo": 2521,
      "ĠLess": 2522,
      "Ġsearch": 2523,
      "aken": 2524,
      "place": 2525,
      "Ġ40": 2526,
      "Ġlead": 2527,
      "apter": 2528,
      "Ġtext": 2529,
      "Ġaddress": 2530,
      "Ġspecies": 2531,
      "Ġmajor": 2532,
      "à«ĩ": 2533,
      "Ġdiag": 2534,
      "Ġhuman": 2535,
      "Ġgovernment": 2536,
      "App": 2537,
      "cos": 2538,
      "ius": 2539,
      "uild": 2540,
      "Ãª": 2541,
      "Ġsure": 2542,
      "Ġsays": 2543,
      "orange": 2544,
      "Ġflow": 2545,
      "Ġmount": 2546,
      "Ġmole": 2547,
      "Ġthings": 2548,
      "roy": 2549,
      "Ġlink": 2550,
      "utes": 2551,
      "Ġge": 2552,
      "igr": 2553,
      "Ġstrate": 2554,
      "Ġconnect": 2555,
      "ably": 2556,
      "ored": 2557,
      "Ġkh": 2558,
      "Ġrate": 2559,
      "à®©": 2560,
      "à®²": 2561,
      "ogurt": 2562,
      "Ġmonths": 2563,
      "Ġoriginal": 2564,
      "summary": 2565,
      "ĠEarth": 2566,
      "Ġuntil": 2567,
      "42": 2568,
      "DF": 2569,
      "cer": 2570,
      "cal": 2571,
      "ched": 2572,
      "over": 2573,
      "side": 2574,
      "ya": 2575,
      "Ġill": 2576,
      "Ġà·Ģ": 2577,
      "reed": 2578,
      "Ġways": 2579,
      "Ġwords": 2580,
      "aries": 2581,
      "Ġpain": 2582,
      "Ġfi": 2583,
      "Ġfive": 2584,
      "Ġfiles": 2585,
      "Ġbro": 2586,
      "ley": 2587,
      "Ġdone": 2588,
      "ention": 2589,
      "ently": 2590,
      "Ġnear": 2591,
      "ĠTP": 2592,
      "uration": 2593,
      "semb": 2594,
      "ĠFramework": 2595,
      "Ġdecl": 2596,
      "à¨¨": 2597,
      "Ġseason": 2598,
      "Ġexist": 2599,
      "Ġchall": 2600,
      "$$.": 2601,
      "Ġwhether": 2602,
      "format": 2603,
      "athol": 2604,
      "Ġsoftware": 2605,
      "Ġworking": 2606,
      "Ġscient": 2607,
      "Ġdifficult": 2608,
      "Ġcollabor": 2609,
      "Ð°Ð": 2610,
      "Ġradi": 2611,
      "ĠProble": 2612,
      "Ġpartnership": 2613,
      "Ġdemand": 2614,
      "âĪĴ": 2615,
      "âĤ¬âĢľ": 2616,
      "'m": 2617,
      "58": 2618,
      "Cl": 2619,
      "ES": 2620,
      "Hub": 2621,
      "IP": 2622,
      "bf": 2623,
      "hood": 2624,
      "Ã¢": 2625,
      "Ġ?": 2626,
      "Ġversion": 2627,
      "įâĲ": 2628,
      "atives": 2629,
      "Ġanalysis": 2630,
      "Ġtoday": 2631,
      "ential": 2632,
      "ctor": 2633,
      "ĠAM": 2634,
      "ĠAss": 2635,
      "rop": 2636,
      "Ġlines": 2637,
      "Ġbegin": 2638,
      "ĠMat": 2639,
      "ĠWar": 2640,
      "Ġalgorithm": 2641,
      "abalu": 2642,
      "ĠNational": 2643,
      "Ġweight": 2644,
      "Ġrules": 2645,
      "ager": 2646,
      "$$\\": 2647,
      "Ġunits": 2648,
      "php": 2649,
      "Ġ\\\\": 2650,
      "ruction": 2651,
      "Ġart": 2652,
      "Ġscale": 2653,
      "Ġrequired": 2654,
      "Ġexplain": 2655,
      "Ġdescrib": 2656,
      "įâĲĬ": 2657,
      "))": 2658,
      "AB": 2659,
      "Sh": 2660,
      "ham": 2661,
      "oe": 2662,
      "ror": 2663,
      "ÌĢ": 2664,
      "Ó©": 2665,
      "inabalu": 2666,
      "rees": 2667,
      "itHub": 2668,
      "Ġcreat": 2669,
      "Ġwrite": 2670,
      "Ġbit": 2671,
      "Ġbody": 2672,
      "Ġmaking": 2673,
      "Ġdom": 2674,
      "Ġtoo": 2675,
      "ilt": 2676,
      "lying": 2677,
      "ĠPr": 2678,
      "âĢį": 2679,
      "adratic": 2680,
      "ĠRE": 2681,
      "ĠLine": 2682,
      "arts": 2683,
      "à·Ħ": 2684,
      "Ġchanges": 2685,
      "astic": 2686,
      "ensive": 2687,
      "Ġà¨¹": 2688,
      "rict": 2689,
      "venue": 2690,
      "ioin": 2691,
      "arget": 2692,
      "ĠiPhone": 2693,
      "rench": 2694,
      "ixed": 2695,
      "Ġconsider": 2696,
      "à«į": 2697,
      "Ġvaccines": 2698,
      "Ġfamily": 2699,
      "Ġwritten": 2700,
      "What": 2701,
      "ĠEngine": 2702,
      "Ġhttp": 2703,
      "âĶĢ": 2704,
      ")=": 2705,
      "78": 2706,
      "De": 2707,
      "HE": 2708,
      "IL": 2709,
      "ds": 2710,
      "ech": 2711,
      "mol": 2712,
      "uly": 2713,
      "xy": 2714,
      "yn": 2715,
      "zk": 2716,
      "oring": 2717,
      "alnut": 2718,
      "Ġfore": 2719,
      "Ġbusiness": 2720,
      "ĠSep": 2721,
      "ĠEn": 2722,
      "Ġcompl": 2723,
      "à¶½": 2724,
      "avel": 2725,
      "orman": 2726,
      "aves": 2727,
      "conom": 2728,
      "Ġcolle": 2729,
      "Ġcoordin": 2730,
      "Ġamong": 2731,
      "print": 2732,
      "Ġvarious": 2733,
      "Ġgreater": 2734,
      "Ġestim": 2735,
      "âĲįâĲĬ": 2736,
      "Ġhttps": 2737,
      "ĠChristian": 2738,
      "Ġtemperature": 2739,
      ".)": 2740,
      "32": 2741,
      "Un": 2742,
      "master": 2743,
      "ope": 2744,
      "public": 2745,
      "Ġturn": 2746,
      "Ġsides": 2747,
      "Ġcell": 2748,
      "Ġpath": 2749,
      "ounc": 2750,
      "oman": 2751,
      "Ġland": 2752,
      "imals": 2753,
      "urther": 2754,
      "Ġalong": 2755,
      "Ġvia": 2756,
      "à¨Ĥ": 2757,
      "ively": 2758,
      "ocs": 2759,
      "áº¥": 2760,
      "Ġtherefore": 2761,
      "Ãłng": 2762,
      "Ġsaf": 2763,
      "Ġpositive": 2764,
      "Ġrequest": 2765,
      "Ġproduct": 2766,
      "ohn": 2767,
      "Ġunderstanding": 2768,
      "Ġproperty": 2769,
      "hematics": 2770,
      "Ġindepend": 2771,
      "formatics": 2772,
      "!!": 2773,
      "\":": 2774,
      "03": 2775,
      "46": 2776,
      "96": 2777,
      "^{\\": 2778,
      "det": 2779,
      "go": 2780,
      "gu": 2781,
      "kan": 2782,
      "mail": 2783,
      "net": 2784,
      "vn": 2785,
      "Ãº": 2786,
      "inu": 2787,
      "heat": 2788,
      "ories": 2789,
      "Ġprom": 2790,
      "Ġft": 2791,
      "Ġfar": 2792,
      "Ġmus": 2793,
      "Ġmot": 2794,
      "Ġhowever": 2795,
      "ĠCount": 2796,
      "unity": 2797,
      "ĠPress": 2798,
      "ĠGerm": 2799,
      "ĠGener": 2800,
      "html": 2801,
      "ĠFirst": 2802,
      "Ġalt": 2803,
      "ĠDec": 2804,
      "à¨¹": 2805,
      "ĠNe": 2806,
      "ĠNow": 2807,
      "ĠNorth": 2808,
      "tember": 2809,
      "à·Ĳ": 2810,
      "Ġko": 2811,
      "à®±": 2812,
      "à®¾": 2813,
      "à°°": 2814,
      "à°²": 2815,
      "Ġ35": 2816,
      "plication": 2817,
      "ĠKinabalu": 2818,
      "Ġque": 2819,
      "Ġoutput": 2820,
      "azon": 2821,
      "center": 2822,
      "ĠAds": 2823,
      "Ġposition": 2824,
      "ĠScott": 2825,
      "Ġcreated": 2826,
      "ĠApple": 2827,
      "icrob": 2828,
      "Ġeasy": 2829,
      "Ġinitial": 2830,
      "ioinformatics": 2831,
      "'ve": 2832,
      ")|": 2833,
      "70": 2834,
      "March": 2835,
      "Search": 2836,
      "bar": 2837,
      "ging": 2838,
      "gener": 2839,
      "ients": 2840,
      "ois": 2841,
      "oot": 2842,
      "way": 2843,
      "xim": 2844,
      "Ġ,": 2845,
      "Ġve": 2846,
      "Ġens": 2847,
      "Ġà¤": 2848,
      "anu": 2849,
      "Ġfocus": 2850,
      "Ġmag": 2851,
      "ĠAng": 2852,
      "ĠApril": 2853,
      "style": 2854,
      "Ġhim": 2855,
      "ĠSam": 2856,
      "ĠSpec": 2857,
      "ĠSci": 2858,
      "rots": 2859,
      "ĠTwo": 2860,
      "Ġlá»į": 2861,
      "igation": 2862,
      "ĠPDF": 2863,
      "umber": 2864,
      "ĠFrom": 2865,
      "ĠNot": 2866,
      "Ġkind": 2867,
      "Ġnever": 2868,
      "api": 2869,
      "duc": 2870,
      "Ġparts": 2871,
      "opy": 2872,
      "aily": 2873,
      "Ġ60": 2874,
      "config": 2875,
      "ĠExample": 2876,
      "Ġrelated": 2877,
      "Ġrelations": 2878,
      "anks": 2879,
      "Ġindust": 2880,
      "ĠEnglish": 2881,
      "Ġlimit": 2882,
      "Ġlittle": 2883,
      "ĠMarketing": 2884,
      "fficient": 2885,
      "Ġstandard": 2886,
      "Ġengine": 2887,
      "Ġassociated": 2888,
      "Ġsingle": 2889,
      "Generator": 2890,
      "ĠLesson": 2891,
      "ED": 2892,
      "Int": 2893,
      "One": 2894,
      "Words": 2895,
      "aut": 2896,
      "fzk": 2897,
      "mic": 2898,
      "ores": 2899,
      "pre": 2900,
      "pack": 2901,
      "sv": 2902,
      "Ã´": 2903,
      "Ò¯": 2904,
      "Ġver": 2905,
      "Ġtaken": 2906,
      "atas": 2907,
      "atural": 2908,
      "ised": 2909,
      "Ġba": 2910,
      "let": 2911,
      "Ġintern": 2912,
      "ĠSim": 2913,
      "Ġnuclear": 2914,
      "Ġlive": 2915,
      "Ġlove": 2916,
      "ola": 2917,
      "ĠCathol": 2918,
      "ĠIll": 2919,
      "Ġ29": 2920,
      "ĠMin": 2921,
      "urch": 2922,
      "ĠBrow": 2923,
      "elves": 2924,
      "rix": 2925,
      "à¨¼": 2926,
      "emon": 2927,
      "ender": 2928,
      "ĠIntern": 2929,
      "Ġplant": 2930,
      "avid": 2931,
      "ccording": 2932,
      "Ġtradition": 2933,
      "Ġ2009": 2934,
      "Ġprevious": 2935,
      "ĠAdWords": 2936,
      "Ġactually": 2937,
      "Ġrelig": 2938,
      "Ġknowledge": 2939,
      "ĠNews": 2940,
      "ometimes": 2941,
      "Ġaway": 2942,
      "Ġcountry": 2943,
      "Ġdegrees": 2944,
      "ipping": 2945,
      "Ġmethods": 2946,
      "Ġpractices": 2947,
      "salad": 2948,
      "Ġspeed": 2949,
      "cription": 2950,
      "ĠSalad": 2951,
      "Ġvolume": 2952,
      "butter": 2953,
      "Ġcomputer": 2954,
      "ĠAugust": 2955,
      "Ġmountain": 2956,
      "fzkq": 2957,
      "07": 2958,
      "94": 2959,
      "Nov": 2960,
      "front": 2961,
      "ged": 2962,
      "iet": 2963,
      "iol": 2964,
      "Ã£": 2965,
      "ïĤ": 2966,
      "Ġtell": 2967,
      "hest": 2968,
      "Ġsocial": 2969,
      "Ġcele": 2970,
      "ister": 2971,
      "Ġwon": 2972,
      "Ġpast": 2973,
      "Ġpages": 2974,
      "Ġthird": 2975,
      "Ġhal": 2976,
      "used": 2977,
      "ĠMa": 2978,
      "ĠWeb": 2979,
      "Ġalm": 2980,
      "Ġprob": 2981,
      "ĠThen": 2982,
      "Ġwhy": 2983,
      "Ġwhite": 2984,
      "aks": 2985,
      "ĠOpen": 2986,
      "osit": 2987,
      "osite": 2988,
      "comp": 2989,
      "comes": 2990,
      "````": 2991,
      "Ġshare": 2992,
      "phy": 2993,
      "Ġjob": 2994,
      "Ġenough": 2995,
      "Ġneeds": 2996,
      "apple": 2997,
      "Ġorigin": 2998,
      "SCOM": 2999,
      "point": 3000,
      "Ġexamples": 3001,
      "Ġclaims": 3002,
      "lobal": 3003,
      "ïĤ·": 3004,
      ")$": 3005,
      ")(": 3006,
      "37": 3007,
      "RA": 3008,
      "SE": 3009,
      "bb": 3010,
      "fer": 3011,
      "nces": 3012,
      "rup": 3013,
      "time": 3014,
      "uro": 3015,
      "ites": 3016,
      "Ġplease": 3017,
      "edia": 3018,
      "icated": 3019,
      "lev": 3020,
      "Ġdig": 3021,
      "Ġhard": 3022,
      "Ġgot": 3023,
      "ĠIN": 3024,
      "Ġyang": 3025,
      "Ġexec": 3026,
      "aked": 3027,
      "Ġuses": 3028,
      "à®®": 3029,
      "à®¯": 3030,
      "à°ķ": 3031,
      "Ġ36": 3032,
      "Ġ2015": 3033,
      "class": 3034,
      "Ġneg": 3035,
      "Ġrespons": 3036,
      "Ġothers": 3037,
      "Ġago": 3038,
      "Ġsubject": 3039,
      "aska": 3040,
      "Ġaccept": 3041,
      "Ġdirection": 3042,
      "Ġdoesn": 3043,
      "Ġestab": 3044,
      "Ġcircle": 3045,
      "minist": 3046,
      "stitute": 3047,
      "Ġfraction": 3048,
      "Ġpriv": 3049,
      "Ġimprove": 3050,
      "(\"": 3051,
      "CD": 3052,
      "Oct": 3053,
      "cy": 3054,
      "cake": 3055,
      "dp": 3056,
      "fort": 3057,
      "pork": 3058,
      "rc": 3059,
      "Ġur": 3060,
      "hel": 3061,
      "ony": 3062,
      "rel": 3063,
      "ery": 3064,
      "atter": 3065,
      "anced": 3066,
      "Ġcook": 3067,
      "Ġfire": 3068,
      "Ġfuture": 3069,
      "Ġmil": 3070,
      "Ġthough": 3071,
      "ĠSain": 3072,
      "ĠCour": 3073,
      "ĠMe": 3074,
      "ĠMobile": 3075,
      "urkey": 3076,
      "Ġones": 3077,
      "Ġassemb": 3078,
      "aberm": 3079,
      "oose": 3080,
      "Ġseem": 3081,
      "Ġheav": 3082,
      "udd": 3083,
      "Ġshown": 3084,
      "ensions": 3085,
      "cont": 3086,
      "Ġseries": 3087,
      "Ġarray": 3088,
      "Ġwhose": 3089,
      "Ġneeded": 3090,
      "ĠDev": 3091,
      "Ġincludes": 3092,
      "airs": 3093,
      "Ġminutes": 3094,
      "Ġincrease": 3095,
      "curity": 3096,
      "Ġasked": 3097,
      "ransformer": 3098,
      "Ġplaces": 3099,
      "Ġresponse": 3100,
      "Ġá¹£e": 3101,
      "Ġdestroy": 3102,
      "Ġimpact": 3103,
      "Ġhigher": 3104,
      "Ġactivities": 3105,
      "ĠAPI": 3106,
      "ĠSeptember": 3107,
      "ouncil": 3108,
      "All": 3109,
      "But": 3110,
      "How": 3111,
      "Text": 3112,
      "UT": 3113,
      "aign": 3114,
      "dram": 3115,
      "flow": 3116,
      "gi": 3117,
      "iá»": 3118,
      "sol": 3119,
      "Ġri": 3120,
      "Ġ...": 3121,
      "Ġaffect": 3122,
      "Ġauthor": 3123,
      "Ġaverage": 3124,
      "eral": 3125,
      "Ġfriend": 3126,
      "iced": 3127,
      "Ġdue": 3128,
      "Ġthought": 3129,
      "Ġhun": 3130,
      "Ġrecomm": 3131,
      "ĠCo": 3132,
      "ĠCake": 3133,
      "Ġ(-": 3134,
      "Ġbegan": 3135,
      "ĠPa": 3136,
      "ĠMore": 3137,
      "quest": 3138,
      "irm": 3139,
      "ĠEv": 3140,
      "ĠData": 3141,
      "pper": 3142,
      "thing": 3143,
      "Ġseen": 3144,
      "Ġ=>": 3145,
      "ĠOther": 3146,
      "à®ª": 3147,
      "à®Ł": 3148,
      "ending": 3149,
      "idered": 3150,
      "Ġsuper": 3151,
      "ĠKey": 3152,
      "ĠVal": 3153,
      "Ġcompon": 3154,
      "overed": 3155,
      "Ġ2008": 3156,
      "Ġà¶ļ": 3157,
      "Ġnews": 3158,
      "Ð°Ð½": 3159,
      "ĠWhy": 3160,
      "**:": 3161,
      "ĠÐ±": 3162,
      "Ġoffic": 3163,
      "Ġfeel": 3164,
      "Ġconsidered": 3165,
      "Ġrunning": 3166,
      "Ġrights": 3167,
      "valu": 3168,
      "ername": 3169,
      "Ġcentury": 3170,
      "Ġpopular": 3171,
      "Ġadditional": 3172,
      "Ġdiscuss": 3173,
      "Ġsites": 3174,
      "ampaign": 3175,
      "Ġissues": 3176,
      "Ġdetermine": 3177,
      "Æ°á»£": 3178,
      "ĠRoasted": 3179,
      "abermetric": 3180,
      ")$$": 3181,
      "06": 3182,
      "98": 3183,
      "BM": 3184,
      "ause": 3185,
      "bl": 3186,
      "fits": 3187,
      "glaze": 3188,
      "pret": 3189,
      "rt": 3190,
      "sk": 3191,
      "zz": 3192,
      "àµ": 3193,
      "ĠØ": 3194,
      "Ġtakes": 3195,
      "Ġtalk": 3196,
      "Ġsdram": 3197,
      "Ġpp": 3198,
      "Ġfit": 3199,
      "Ġfail": 3200,
      "Ġmar": 3201,
      "lemon": 3202,
      "Ġdou": 3203,
      "Ġdate": 3204,
      "oms": 3205,
      "ĠAre": 3206,
      "ĠArab": 3207,
      "Ġhol": 3208,
      "Ġhost": 3209,
      "Ġhaving": 3210,
      "def": 3211,
      "ĠId": 3212,
      "Ġyet": 3213,
      "ĠWill": 3214,
      "Ġonce": 3215,
      "ĠGlaze": 3216,
      "ĠEd": 3217,
      "Ġweb": 3218,
      "á»ĳ": 3219,
      "essage": 3220,
      "ĠUsing": 3221,
      "Ġship": 3222,
      "ĠJournal": 3223,
      "ĠJohn": 3224,
      "áº¡": 3225,
      "1093": 3226,
      "azine": 3227,
      "Ġmanagement": 3228,
      "Ġprim": 3229,
      "}}\\": 3230,
      "Ġcover": 3231,
      "à·ĬâĢį": 3232,
      "lected": 3233,
      "ĠButter": 3234,
      "iction": 3235,
      "Ġpolicy": 3236,
      "Ġelse": 3237,
      "Ġcurrently": 3238,
      "Ġdirectory": 3239,
      "Ġsyn": 3240,
      "mathrm": 3241,
      "mathbf": 3242,
      "4720": 3243,
      "Ġpurch": 3244,
      "Ġclear": 3245,
      "Ġcourse": 3246,
      "board": 3247,
      "ĠBritish": 3248,
      "priate": 3249,
      "Ġfamilies": 3250,
      "ĠLinear": 3251,
      ")^": 3252,
      "31": 3253,
      "41": 3254,
      "><": 3255,
      "CE": 3256,
      "Con": 3257,
      "Cont": 3258,
      "When": 3259,
      "ford": 3260,
      "fric": 3261,
      "ginger": 3262,
      "light": 3263,
      "uel": 3264,
      "wards": 3265,
      "atur": 3266,
      "anilla": 3267,
      "Ġwave": 3268,
      "aly": 3269,
      "Ġpm": 3270,
      "ica": 3271,
      "Ġinm": 3272,
      "Ġthing": 3273,
      "ĠAfric": 3274,
      "ĠSub": 3275,
      "ĠSome": 3276,
      "ĠSouth": 3277,
      "Ġrevenue": 3278,
      "ĠTime": 3279,
      "Ġey": 3280,
      "rad": 3281,
      "chie": 3282,
      "ĠRel": 3283,
      "sequ": 3284,
      "ĠForm": 3285,
      "ĠDet": 3286,
      "Ġconduct": 3287,
      "aches": 3288,
      "ĠLear": 3289,
      "istor": 3290,
      "lores": 3291,
      "Ġcomes": 3292,
      "Ġwebs": 3293,
      "Ġusually": 3294,
      "Ġatte": 3295,
      "antus": 3296,
      "à·Ļ": 3297,
      "Ġris": 3298,
      "Ġleg": 3299,
      "ffort": 3300,
      "Ġnecess": 3301,
      "Ġmeeting": 3302,
      "ĠView": 3303,
      "Ġcompany": 3304,
      "Ġuseful": 3305,
      "Ġteac": 3306,
      "Ġ2005": 3307,
      "Ġinterval": 3308,
      "ĠClass": 3309,
      "Ġdefault": 3310,
      "String": 3311,
      "Ġdistance": 3312,
      "----------------": 3313,
      "Ġimmedi": 3314,
      "Ġlearning": 3315,
      "Ġcharacter": 3316,
      "Ġprovided": 3317,
      "Ġitems": 3318,
      "ĠDepartment": 3319,
      "otatoes": 3320,
      "anuary": 3321,
      ")](": 3322,
      "/)": 3323,
      "43": 3324,
      "79": 3325,
      "CM": 3326,
      "Page": 3327,
      "bt": 3328,
      "bed": 3329,
      "dis": 3330,
      "hun": 3331,
      "js": 3332,
      "ma": 3333,
      "ply": 3334,
      "su": 3335,
      "ura": 3336,
      "Ġter": 3337,
      "erk": 3338,
      "Ġcult": 3339,
      "Ġwide": 3340,
      "alt": 3341,
      "Ġbar": 3342,
      "Ġbook": 3343,
      "Ġdru": 3344,
      "asing": 3345,
      "Ġnorm": 3346,
      "Ġnaa": 3347,
      "vec": 3348,
      "Ġeconom": 3349,
      "img": 3350,
      "ĠPork": 3351,
      "ĠMc": 3352,
      "ĠMan": 3353,
      "urity": 3354,
      "ĠBread": 3355,
      "see": 3356,
      "Ġstre": 3357,
      "pped": 3358,
      "ĠNorman": 3359,
      "ĠLab": 3360,
      "mentary": 3361,
      "Ġweap": 3362,
      "osed": 3363,
      "Ġkm": 3364,
      "ocol": 3365,
      "aging": 3366,
      "ults": 3367,
      "ideo": 3368,
      "Ġclim": 3369,
      "Ġà¨¨": 3370,
      "Ġà¨ķ": 3371,
      "Ġoutside": 3372,
      "Ġcommission": 3373,
      "Ġadded": 3374,
      "ounds": 3375,
      "Ġcolumn": 3376,
      "Ð°ÑĢ": 3377,
      "Ġmatch": 3378,
      "Ġmatter": 3379,
      "cream": 3380,
      "Ġdepartment": 3381,
      "ĠHallows": 3382,
      "ðĿĽ": 3383,
      "Ġgeneral": 3384,
      "Ġcapt": 3385,
      "Ġdegus": 3386,
      "Ġpractice": 3387,
      "ameters": 3388,
      "Ġgrowth": 3389,
      "Ġlargest": 3390,
      "Ġattempt": 3391,
      "87": 3392,
      "95": 3393,
      "Is": 3394,
      "hot": 3395,
      "ires": 3396,
      "mi": 3397,
      "ming": 3398,
      "set": 3399,
      "uals": 3400,
      "Ä©": 3401,
      "ðŁ": 3402,
      "reci": 3403,
      "Ġsent": 3404,
      "Ġsil": 3405,
      "Ġsize": 3406,
      "ened": 3407,
      "Ġcm": 3408,
      "Ġcrit": 3409,
      "Ġpull": 3410,
      "Ġmá»": 3411,
      "omen": 3412,
      "ĠAge": 3413,
      "ĠAust": 3414,
      "raft": 3415,
      "Ġgi": 3416,
      "ulations": 3417,
      "ĠRed": 3418,
      "Ġstore": 3419,
      "ĠEve": 3420,
      "Ġconcept": 3421,
      "Ġvs": 3422,
      "à¨¦": 3423,
      "à¨®": 3424,
      "Ġexact": 3425,
      "ĠOver": 3426,
      "à·ĵ": 3427,
      "plain": 3428,
      "berry": 3429,
      "Ġimage": 3430,
      "Ġdoing": 3431,
      "Ġupon": 3432,
      "Ġserver": 3433,
      "rices": 3434,
      "Ġ80": 3435,
      "ecause": 3436,
      "ugin": 3437,
      "cient": 3438,
      "Ġbuy": 3439,
      "Ġaccording": 3440,
      "Ġrecogn": 3441,
      "Ġsequences": 3442,
      "Ġacross": 3443,
      "Ġsurface": 3444,
      "Ġfactor": 3445,
      "Ġfactors": 3446,
      "uthors": 3447,
      "Ġlooking": 3448,
      "Ġshows": 3449,
      "Ġgenome": 3450,
      "ructure": 3451,
      "ING": 3452,
      "Ġprotect": 3453,
      "ĠâĪĴ": 3454,
      "Ġlarger": 3455,
      "Ġapplication": 3456,
      "Ġsteps": 3457,
      "ython": 3458,
      "Ġparents": 3459,
      "svg": 3460,
      "ĠCatholic": 3461,
      ":||": 3462,
      "AA": 3463,
      "GitHub": 3464,
      "Now": 3465,
      "].": 3466,
      "`.": 3467,
      "born": 3468,
      "dressing": 3469,
      "ka": 3470,
      "nam": 3471,
      "pm": 3472,
      "si": 3473,
      "Ġ>": 3474,
      "Ġ//": 3475,
      "Ġachie": 3476,
      "heads": 3477,
      "reg": 3478,
      "Ġsource": 3479,
      "Ġfurther": 3480,
      "icense": 3481,
      "Ġmom": 3482,
      "Ġdivid": 3483,
      "ĠAg": 3484,
      "Ġhor": 3485,
      "Ġnetwork": 3486,
      "Ġrepe": 3487,
      "Ġreason": 3488,
      "ĠTest": 3489,
      "ĠMag": 3490,
      "aded": 3491,
      "ĠGet": 3492,
      "Ġalign": 3493,
      "ĠDressing": 3494,
      "Ġdead": 3495,
      "istance": 3496,
      "Ġcomb": 3497,
      "Ġsepar": 3498,
      "Ġsecurity": 3499,
      "á»§": 3500,
      "Ġrather": 3501,
      "aged": 3502,
      "ĠJava": 3503,
      "izing": 3504,
      "Ġjz": 3505,
      "Ġappear": 3506,
      "Ġpoor": 3507,
      "Ġsubt": 3508,
      "Ġaccur": 3509,
      "Ġposts": 3510,
      "Ġfeet": 3511,
      "2019": 3512,
      "Ġtests": 3513,
      "Ġpolit": 3514,
      "ĠOrange": 3515,
      "ĠResearch": 3516,
      "Ġapproach": 3517,
      "Ġappropriate": 3518,
      "Ġmodels": 3519,
      "Ġmedia": 3520,
      "Ġinflu": 3521,
      "Ġwriting": 3522,
      "Ġissue": 3523,
      "Ġvisit": 3524,
      "Ġcontrol": 3525,
      "ĠFunctions": 3526,
      "Ġpublished": 3527,
      "Ġwebsite": 3528,
      "'d": 3529,
      ")}": 3530,
      "66": 3531,
      "Find": 3532,
      "No": 3533,
      "col": 3534,
      "docs": 3535,
      "git": 3536,
      "gment": 3537,
      "ken": 3538,
      "rum": 3539,
      "rilled": 3540,
      "}(": 3541,
      "Ã¨": 3542,
      "Ġvert": 3543,
      "Ġà·ĥ": 3544,
      "reme": 3545,
      "Ġsix": 3546,
      "Ġpick": 3547,
      "Ġbr": 3548,
      "oura": 3549,
      "Ġmi": 3550,
      "Ġder": 3551,
      "Ġdan": 3552,
      "Ġdatabase": 3553,
      "Ġtook": 3554,
      "ĠSil": 3555,
      "ĠSec": 3556,
      "Ġreference": 3557,
      "ĠTra": 3558,
      "ĠTop": 3559,
      "ĠTHE": 3560,
      "ols": 3561,
      "username": 3562,
      "ĠII": 3563,
      "ĠInt": 3564,
      "ĠMus": 3565,
      "ĠMult": 3566,
      "ĠHer": 3567,
      "Ġonline": 3568,
      "ills": 3569,
      "abit": 3570,
      "acy": 3571,
      "tee": 3572,
      "à®³": 3573,
      "ials": 3574,
      "àª¨": 3575,
      "ĠStand": 3576,
      "rypt": 3577,
      "clus": 3578,
      "avor": 3579,
      "Ġquant": 3580,
      "Ġquality": 3581,
      "ghÄ©": 3582,
      "ĠExam": 3583,
      "ĠAdd": 3584,
      "à±ĩ": 3585,
      "}}$$": 3586,
      "cade": 3587,
      "ĠÐ¶": 3588,
      "lands": 3589,
      "Ġdeveloped": 3590,
      "begin": 3591,
      "Ġearth": 3592,
      "Ġsmaller": 3593,
      "Ġentire": 3594,
      "Ġcomplex": 3595,
      "Ġschools": 3596,
      "Ġdirectly": 3597,
      "Ġpersonal": 3598,
      "Ġzero": 3599,
      "Ġliter": 3600,
      "Ġtools": 3601,
      "ĠÂłĠÂł": 3602,
      "ĠUNSCOM": 3603,
      "Ġbelieve": 3604,
      "áº£ng": 3605,
      "Ġeducation": 3606,
      "Ġreligious": 3607,
      "$.": 3608,
      "500": 3609,
      "Aug": 3610,
      "He": 3611,
      "NA": 3612,
      "With": 3613,
      "based": 3614,
      "fruit": 3615,
      "hol": 3616,
      "link": 3617,
      "ns": 3618,
      "rs": 3619,
      "sweet": 3620,
      "ti": 3621,
      "uper": 3622,
      "wise": 3623,
      "where": 3624,
      "Ð¼": 3625,
      "ÑĪ": 3626,
      "ÙĦ": 3627,
      "Ġtarget": 3628,
      "inc": 3629,
      "onal": 3630,
      "Ġthems": 3631,
      "atus": 3632,
      "isect": 3633,
      "alle": 3634,
      "ara": 3635,
      "Ġpot": 3636,
      "Ġfall": 3637,
      "Ġmakes": 3638,
      "Ġdim": 3639,
      "ĠAL": 3640,
      "Ġhar": 3641,
      "Ġhouse": 3642,
      "ĠhÃłng": 3643,
      "roid": 3644,
      "Ġnight": 3645,
      "Ġeffort": 3646,
      "Ġlab": 3647,
      "ĠCream": 3648,
      "uts": 3649,
      "cell": 3650,
      "ung": 3651,
      "ĠBar": 3652,
      "ĠBusiness": 3653,
      "ĠHis": 3654,
      "ĠHere": 3655,
      "eline": 3656,
      "second": 3657,
      "ĠGar": 3658,
      "ĠGod": 3659,
      "ĠGinger": 3660,
      "ĠFr": 3661,
      "Ġstep": 3662,
      "Ġstyle": 3663,
      "ĠEach": 3664,
      "Ġalgebra": 3665,
      "ĠDo": 3666,
      "aby": 3667,
      "à¨¤": 3668,
      "ĠOb": 3669,
      "ags": 3670,
      "à°¯": 3671,
      "ĠJanuary": 3672,
      "ĠInc": 3673,
      "àª²": 3674,
      "Ġadminist": 3675,
      "clude": 3676,
      "avigation": 3677,
      "Ġquite": 3678,
      "Ġsoon": 3679,
      "ĠYour": 3680,
      "Ġnumer": 3681,
      "pecially": 3682,
      "à©°": 3683,
      "à©±": 3684,
      "Ġprint": 3685,
      "Ġphot": 3686,
      "Ġprovides": 3687,
      "Ġintegr": 3688,
      "Ġobser": 3689,
      "Ġmultip": 3690,
      "Ġweeks": 3691,
      "RESS": 3692,
      "Ġcontinue": 3693,
      "Ġmultiplication": 3694,
      "grilled": 3695,
      "à¥į": 3696,
      "Ġsitu": 3697,
      "imately": 3698,
      "Ġmeaning": 3699,
      "Ġbasic": 3700,
      "Ġstrateg": 3701,
      "ĠMathematics": 3702,
      "02": 3703,
      "49": 3704,
      "51": 3705,
      "BC": 3706,
      "IS": 3707,
      "ML": 3708,
      "US": 3709,
      "apt": 3710,
      "ection": 3711,
      "fess": 3712,
      "ios": 3713,
      "já»į": 3714,
      "lim": 3715,
      "mar": 3716,
      "nown": 3717,
      "ses": 3718,
      "squ": 3719,
      "self": 3720,
      "ties": 3721,
      "ua": 3722,
      "uy": 3723,
      "year": 3724,
      "ÃĹ": 3725,
      "ini": 3726,
      "Ġsá»į": 3727,
      "Ġsell": 3728,
      "Ġsample": 3729,
      "itution": 3730,
      "estern": 3731,
      "icate": 3732,
      "Ġhour": 3733,
      "Ġever": 3734,
      "ĠCouncil": 3735,
      "add": 3736,
      "ĠBlog": 3737,
      "ĠHel": 3738,
      "iforn": 3739,
      "ĠFrench": 3740,
      "Ġstrong": 3741,
      "pping": 3742,
      "ĠNghÄ©": 3743,
      "Ġuser": 3744,
      "Ġusers": 3745,
      "à·ļ": 3746,
      "Ġrat": 3747,
      "Ġrandom": 3748,
      "ember": 3749,
      "emann": 3750,
      "Ġchapter": 3751,
      "à°Ł": 3752,
      "ĠâĢ¦": 3753,
      "Ġjo": 3754,
      "ĠĠĠĠĠĠĠĠĠ": 3755,
      "ruary": 3756,
      "à¯Ī": 3757,
      "Ġ64": 3758,
      "Ġworked": 3759,
      "Index": 3760,
      "Ġitself": 3761,
      "nings": 3762,
      "Ð°Ð»": 3763,
      "ribute": 3764,
      "Ġoverall": 3765,
      "ĠAdvert": 3766,
      "velopment": 3767,
      "mond": 3768,
      "Ġassess": 3769,
      "encing": 3770,
      "theme": 3771,
      "à«Ģ": 3772,
      "ĠQuáº£ng": 3773,
      "ĠSequ": 3774,
      "ĠÄĳá»": 3775,
      "Ġsquares": 3776,
      "Ġblack": 3777,
      "Ġblood": 3778,
      "Ġelastic": 3779,
      "ridge": 3780,
      "Ġpartnerships": 3781,
      "Ġsignific": 3782,
      "........": 3783,
      "ercise": 3784,
      "ĠCaliforn": 3785,
      "Ġcircum": 3786,
      "Ġindividual": 3787,
      "Ġbehav": 3788,
      "Ġdomain": 3789,
      "Ġthemselves": 3790,
      "ĠNghÄ©a": 3791,
      "ĠCalifornia": 3792,
      "57": 3793,
      "Im": 3794,
      "Sp": 3795,
      "UB": 3796,
      "box": 3797,
      "cast": 3798,
      "cular": 3799,
      "des": 3800,
      "gers": 3801,
      "iáº¿": 3802,
      "mark": 3803,
      "mok": 3804,
      "ny": 3805,
      "pes": 3806,
      "rá»į": 3807,
      "she": 3808,
      "Ġtask": 3809,
      "ref": 3810,
      "Ġsave": 3811,
      "Ġsabermetric": 3812,
      "Ġpie": 3813,
      "Ġfast": 3814,
      "Ġang": 3815,
      "ican": 3816,
      "Ġmid": 3817,
      "iling": 3818,
      "Ġholes": 3819,
      "Ġhistory": 3820,
      "Ġnational": 3821,
      "Ġlower": 3822,
      "iment": 3823,
      "ĠMy": 3824,
      "ĠMount": 3825,
      "ĠHarv": 3826,
      "elt": 3827,
      "ĠĠĠĠĠĠ": 3828,
      "ĠFeb": 3829,
      "Ġalthough": 3830,
      "Ġdeal": 3831,
      "ths": 3832,
      "à¶§": 3833,
      "Ġheight": 3834,
      "ured": 3835,
      "ĠUse": 3836,
      "ĠJust": 3837,
      "àª¤": 3838,
      "Ġadj": 3839,
      "aching": 3840,
      "Ġmeet": 3841,
      "icks": 3842,
      "Ġcontribut": 3843,
      "Ġcompet": 3844,
      "Ġscript": 3845,
      "à©Ī": 3846,
      "Ġroom": 3847,
      "Ġroot": 3848,
      "}}^{\\": 3849,
      "ĠAlaska": 3850,
      "Ġassum": 3851,
      "hens": 3852,
      "Ġinstance": 3853,
      "Ġinstead": 3854,
      "Ġsimply": 3855,
      "Ġconsum": 3856,
      "Stream": 3857,
      "olden": 3858,
      "Ġsystems": 3859,
      "######": 3860,
      "Ġlimited": 3861,
      "ĠCommission": 3862,
      "Ġinvolved": 3863,
      "Ġopport": 3864,
      "Ġevidence": 3865,
      "ĠGuide": 3866,
      "ĠCompany": 3867,
      "ĠSystems": 3868,
      "Ġperformance": 3869,
      "Ġchalleng": 3870,
      "Ġscientists": 3871,
      "Ġensure": 3872,
      "Ã´ng": 3873,
      "PageIndex": 3874,
      "'ll": 3875,
      "72": 3876,
      "Be": 3877,
      "CI": 3878,
      "DRESS": 3879,
      "Post": 3880,
      "RO": 3881,
      "Ste": 3882,
      "[[": 3883,
      "bi": 3884,
      "fast": 3885,
      "gest": 3886,
      "rut": 3887,
      "rus": 3888,
      "rant": 3889,
      "rust": 3890,
      "ync": 3891,
      "ãģ": 3892,
      "ĠÎ": 3893,
      "Ġaff": 3894,
      "release": 3895,
      "Ġsens": 3896,
      "Ġsometimes": 3897,
      "Ġcub": 3898,
      "Ġcity": 3899,
      "Ġcame": 3900,
      "Ġworth": 3901,
      "Ġpers": 3902,
      "Ġfem": 3903,
      "Ġbal": 3904,
      "Ġball": 3905,
      "Ġbooks": 3906,
      "Ġmer": 3907,
      "Ġmal": 3908,
      "Ġdraw": 3909,
      "Ġinput": 3910,
      "Ġhold": 3911,
      "eter": 3912,
      "vey": 3913,
      "Ġlik": 3914,
      "ĠCre": 3915,
      "ĠCir": 3916,
      "ĠCook": 3917,
      "Ġgain": 3918,
      "Ġbecomes": 3919,
      "ĠPol": 3920,
      "ĠMex": 3921,
      "ĠBro": 3922,
      "ĠFlores": 3923,
      "Ġstaff": 3924,
      "ĠEX": 3925,
      "ĠEle": 3926,
      "ĠEduc": 3927,
      "ĠDi": 3928,
      "ĠNations": 3929,
      "Ġrates": 3930,
      "Ġshall": 3931,
      "ĠInst": 3932,
      "Ġ09": 3933,
      "redit": 3934,
      "izes": 3935,
      "Ġquadratic": 3936,
      "opol": 3937,
      "Ġsomeone": 3938,
      "ribution": 3939,
      "Ġrock": 3940,
      "à¤°": 3941,
      "Ġbuilt": 3942,
      "Ġlikely": 3943,
      "Ġregard": 3944,
      "Ġvariable": 3945,
      "Ġdefin": 3946,
      "Ġground": 3947,
      "ields": 3948,
      "Ġemail": 3949,
      "Ġextra": 3950,
      "Ġcommunication": 3951,
      "Ġdownload": 3952,
      "ATION": 3953,
      "Ġrefer": 3954,
      "Ġprograms": 3955,
      "Ġimmigr": 3956,
      "Ġpassed": 3957,
      "ĠPeriod": 3958,
      "salmon": 3959,
      "ĠAmazon": 3960,
      "ĠIndia": 3961,
      "![](": 3962,
      "Ġopposite": 3963,
      "Ġespecially": 3964,
      "ivalent": 3965,
      "ibrary": 3966,
      "Ġimplementation": 3967,
      "Ġhalf": 3968,
      "Ġrecommend": 3969,
      "ĠLearning": 3970,
      ")^{": 3971,
      "GE": 3972,
      "ID": 3973,
      "Note": 3974,
      "Res": 3975,
      "UN": 3976,
      "`,": 3977,
      "came": 3978,
      "dna": 3979,
      "hat": 3980,
      "hic": 3981,
      "iance": 3982,
      "ke": 3983,
      "kins": 3984,
      "lay": 3985,
      "mp": 3986,
      "qrt": 3987,
      "ups": 3988,
      "vis": 3989,
      "{{": 3990,
      "{{\\": 3991,
      "Ġess": 3992,
      "inary": 3993,
      "oratory": 3994,
      "Ġcou": 3995,
      "Ġcand": 3996,
      "Ġcases": 3997,
      "Ġcá»§": 3998,
      "arr": 3999,
      "aravel": 4000,
      "Ġanimals": 4001,
      "icular": 4002,
      "Ġmiles": 4003,
      "leg": 4004,
      "Ġda": 4005,
      "ĠAN": 4006,
      "ĠST": 4007,
      "Ġnames": 4008,
      "ĠTim": 4009,
      "ĠTart": 4010,
      "Ġevalu": 4011,
      "user": 4012,
      "igret": 4013,
      "Ġbecame": 4014,
      "vercel": 4015,
      "ĠBudd": 4016,
      "ĠHigh": 4017,
      "sem": 4018,
      "Ġdeath": 4019,
      "resents": 4020,
      "ĠLemon": 4021,
      "à®µ": 4022,
      "à°¦": 4023,
      "ĠUs": 4024,
      "pty": 4025,
      "àªµ": 4026,
      "àªĤ": 4027,
      "àªķ": 4028,
      "ĠStart": 4029,
      "ĠReact": 4030,
      "Ġà¨¸": 4031,
      "ressed": 4032,
      "Ġcommand": 4033,
      "Ġà¶´": 4034,
      "ibility": 4035,
      "Ġcollection": 4036,
      "ught": 4037,
      "Ãły": 4038,
      "ĠÐº": 4039,
      "Ġfeatures": 4040,
      "fully": 4041,
      "commit": 4042,
      "logdna": 4043,
      "Ġobtain": 4044,
      "Ġlonger": 4045,
      "Ġprojects": 4046,
      "Ġproduce": 4047,
      "Ġthroughout": 4048,
      "example": 4049,
      "à¶±à¶º": 4050,
      "Ġcountries": 4051,
      "ÂłÂłÂłÂłÂłÂłÂłÂłÂłÂłÂłÂłÂłÂłÂłÂł": 4052,
      "inaigret": 4053,
      "ipped": 4054,
      "uffel": 4055,
      "Ġguide": 4056,
      "Ġmodern": 4057,
      "Ġclean": 4058,
      "Ġclose": 4059,
      "Ġfilm": 4060,
      "Ġtrend": 4061,
      "Ġbreak": 4062,
      "Ġidea": 4063,
      "ADDRESS": 4064,
      "Ġconfiguration": 4065,
      "ĠGerman": 4066,
      "Ġindustry": 4067,
      "Ġheavy": 4068,
      "Ġweapons": 4069,
      "Ġcá»§a": 4070,
      "inaigrette": 4071,
      "%.": 4072,
      "('": 4073,
      "/)__": 4074,
      "84": 4075,
      "85": 4076,
      "Here": 4077,
      "IV": 4078,
      "PO": 4079,
      "Rep": 4080,
      "]{\\": 4081,
      "ban": 4082,
      "fect": 4083,
      "fact": 4084,
      "gard": 4085,
      "iy": 4086,
      "ln": 4087,
      "mes": 4088,
      "má»į": 4089,
      "mosp": 4090,
      "oon": 4091,
      "rink": 4092,
      "tart": 4093,
      "{-": 4094,
      "}[": 4095,
      "Â©": 4096,
      "Ð¿": 4097,
      "Ġ)": 4098,
      "Ġut": 4099,
      "Ġir": 4100,
      "Ġá»": 4101,
      "Ġ###": 4102,
      "Ġtw": 4103,
      "Ġtou": 4104,
      "Ġax": 4105,
      "Ġaction": 4106,
      "Ġauthors": 4107,
      "rew": 4108,
      "enge": 4109,
      "Ġcy": 4110,
      "Ġwor": 4111,
      "Ġwent": 4112,
      "Ġwatch": 4113,
      "Ġprices": 4114,
      "Ġface": 4115,
      "Ġbone": 4116,
      "Ġbur": 4117,
      "Ġbank": 4118,
      "Ġmach": 4119,
      "asons": 4120,
      "Ġthreat": 4121,
      "ils": 4122,
      "Ġled": 4123,
      "Ġlot": 4124,
      "Ġlate": 4125,
      "ĠCampaign": 4126,
      "dered": 4127,
      "change": 4128,
      "ĠMich": 4129,
      "ĠHa": 4130,
      "ĠFin": 4131,
      "Ġaltern": 4132,
      "Ġpropos": 4133,
      "abs": 4134,
      "Ġvon": 4135,
      "Ġviol": 4136,
      "à¨ķ": 4137,
      "ĠLCD": 4138,
      "Ġexcept": 4139,
      "``,": 4140,
      "Ġcharg": 4141,
      "Ġchoose": 4142,
      "endment": 4143,
      "ĠUp": 4144,
      "ĠUnder": 4145,
      "Ġshipping": 4146,
      "outs": 4147,
      "Ġ45": 4148,
      "anged": 4149,
      "Ġjud": 4150,
      "Ġà¨ľ": 4151,
      "Ġupdate": 4152,
      "Ġappl": 4153,
      "Ġmatrix": 4154,
      "Ġsold": 4155,
      "Ġroots": 4156,
      "Ġoffice": 4157,
      "ĠAnswer": 4158,
      "Ġregular": 4159,
      "Ġrecords": 4160,
      "Ġsimpl": 4161,
      "Ġrepresents": 4162,
      "Ġproduction": 4163,
      "Ġconstruct": 4164,
      "Ġtesting": 4165,
      "ranch": 4166,
      "Ġemploy": 4167,
      "Ġmember": 4168,
      "return": 4169,
      "vention": 4170,
      "ĠPlan": 4171,
      "AND": 4172,
      "Ġmarket": 4173,
      "Ġdidn": 4174,
      "Ġlevels": 4175,
      "Ġidentify": 4176,
      "ĠStep": 4177,
      "Ġprior": 4178,
      "Ġrespond": 4179,
      "Ġclaim": 4180,
      "Ġdesigned": 4181,
      "ĠGrade": 4182,
      "Ġconditions": 4183,
      "Ãªn": 4184,
      "reedom": 4185,
      "Ġcollaborative": 4186,
      "Ġmusic": 4187,
      "Ġceleb": 4188,
      "Ġprobably": 4189,
      "ository": 4190,
      "Æ°á»£c": 4191,
      "Ġsubtract": 4192,
      "ĠSecurity": 4193,
      "ĠHarvard": 4194,
      "08": 4195,
      "69": 4196,
      "88": 4197,
      "AC": 4198,
      "Name": 4199,
      "On": 4200,
      "PL": 4201,
      "PS": 4202,
      "WR": 4203,
      "cm": 4204,
      "cher": 4205,
      "cook": 4206,
      "dx": 4207,
      "data": 4208,
      "iver": 4209,
      "láº¹": 4210,
      "word": 4211,
      "ze": 4212,
      "Ã§": 4213,
      "ĠÑ": 4214,
      "inning": 4215,
      "rem": 4216,
      "react": 4217,
      "atta": 4218,
      "Ġslo": 4219,
      "orrect": 4220,
      "iter": 4221,
      "itiz": 4222,
      "alse": 4223,
      "arter": 4224,
      "Ġinn": 4225,
      "ilk": 4226,
      "ĠAc": 4227,
      "ster": 4228,
      "Ġhon": 4229,
      "roll": 4230,
      "Ġnation": 4231,
      "Ġnatural": 4232,
      "Ġrepro": 4233,
      "ĠCI": 4234,
      "deploy": 4235,
      "Ġgave": 4236,
      "otyp": 4237,
      "ĠMarch": 4238,
      "adow": 4239,
      "adatta": 4240,
      "ĠBow": 4241,
      "ĠBase": 4242,
      "ĠRoman": 4243,
      "ĠHol": 4244,
      "ĠWord": 4245,
      "ĠDis": 4246,
      "Ġconc": 4247,
      "ĠOR": 4248,
      "antic": 4249,
      "Ġunique": 4250,
      "oday": 4251,
      "áºŃ": 4252,
      "anging": 4253,
      "ĠRepublic": 4254,
      "Ġrespect": 4255,
      "Ġresource": 4256,
      "Ġagencies": 4257,
      "Ġtrig": 4258,
      "Ġà¶»": 4259,
      "Ġstudent": 4260,
      "Ġstudies": 4261,
      "useum": 4262,
      "Ġ90": 4263,
      "ĠWhile": 4264,
      "Ġmaxim": 4265,
      "Ġsolutions": 4266,
      "Ġformat": 4267,
      "ĠAlgebra": 4268,
      "ĠProgram": 4269,
      "Ġgetting": 4270,
      "Ġcovers": 4271,
      "monst": 4272,
      "Ġdetect": 4273,
      "Ġclassical": 4274,
      "Ġvariables": 4275,
      "ĠÄĳÆ°á»£c": 4276,
      "ranola": 4277,
      "Ġparameters": 4278,
      "à¨¾à¨Ĥ": 4279,
      "ĠTeuffel": 4280,
      "Ġplayer": 4281,
      "Ġlinear": 4282,
      "ratch": 4283,
      "Ġreported": 4284,
      "Ġeasily": 4285,
      "Ġcontains": 4286,
      "Ġfigures": 4287,
      "Ġoption": 4288,
      "ĠGraphing": 4289,
      "ĠCalcul": 4290,
      "Ġparticipants": 4291,
      "========": 4292,
      "Ġpattern": 4293,
      "Ġpredict": 4294,
      "Ġencoura": 4295,
      "Ġflowers": 4296,
      "ĠProblem": 4297,
      "Ã¢n": 4298,
      "Ġsafety": 4299,
      "ĠCounty": 4300,
      "ĠScience": 4301,
      "Introduction": 4302,
      "Ġalmost": 4303,
      "Ġnegative": 4304,
      "ĠCourt": 4305,
      "Ġimmediately": 4306,
      "();": 4307,
      "++": 4308,
      "._": 4309,
      "65": 4310,
      "EMA": 4311,
      "IR": 4312,
      "Ro": 4313,
      "bad": 4314,
      "cing": 4315,
      "cus": 4316,
      "ef": 4317,
      "from": 4318,
      "kin": 4319,
      "known": 4320,
      "lat": 4321,
      "nes": 4322,
      "pid": 4323,
      "part": 4324,
      "uit": 4325,
      "Ġten": 4326,
      "inate": 4327,
      "Ġsales": 4328,
      "itary": 4329,
      "Ġoil": 4330,
      "Ġfest": 4331,
      "Ġfront": 4332,
      "Ġbom": 4333,
      "Ġbird": 4334,
      "Ġmol": 4335,
      "lex": 4336,
      "Ġdaily": 4337,
      "Ġtold": 4338,
      "ĠAccording": 4339,
      "Ġhot": 4340,
      "ĠSum": 4341,
      "eta": 4342,
      "Ġlay": 4343,
      "Ġlack": 4344,
      "cember": 4345,
      "cha": 4346,
      "cho": 4347,
      "Ġ2000": 4348,
      "ama": 4349,
      "ĠPar": 4350,
      "ĠPract": 4351,
      "ĠMal": 4352,
      "ĠHam": 4353,
      "ĠWil": 4354,
      "ĠFig": 4355,
      "Ġstring": 4356,
      "ĠEl": 4357,
      "ĠEst": 4358,
      "ĠEast": 4359,
      "Ġprofess": 4360,
      "Ġdemonst": 4361,
      "à¨ļ": 4362,
      "ĠNetwork": 4363,
      "lore": 4364,
      "Ġsection": 4365,
      "à¶´": 4366,
      "coming": 4367,
      "ague": 4368,
      "à°¤": 4369,
      "Ġnote": 4370,
      "asts": 4371,
      "berg": 4372,
      "___": 4373,
      "àª¿": 4374,
      "Ġplants": 4375,
      "acters": 4376,
      "Ġimages": 4377,
      "Ġyourself": 4378,
      "ĠChurch": 4379,
      "Ġà¨ī": 4380,
      "Ġdisco": 4381,
      "Ġdisplay": 4382,
      "Ġagree": 4383,
      "ĠExp": 4384,
      "ĠArn": 4385,
      "Ġfollowed": 4386,
      "Ġoffer": 4387,
      "fraction": 4388,
      "Ġdetail": 4389,
      "Ġdefined": 4390,
      "á¹£áº¹": 4391,
      "Ġgenerate": 4392,
      "Ġsurv": 4393,
      "ATS": 4394,
      "ĠStudy": 4395,
      "Ġ1998": 4396,
      "Ġhealthy": 4397,
      "Ġcause": 4398,
      "Ġdegree": 4399,
      "Ġperiods": 4400,
      "Ġready": 4401,
      "ancy": 4402,
      "Ġallows": 4403,
      "à¥¤": 4404,
      "Ġreports": 4405,
      "Ġthinking": 4406,
      "Ġinvolving": 4407,
      "Ġfractions": 4408,
      "Ġeffective": 4409,
      "Ġbasis": 4410,
      "Ġcharacters": 4411,
      "Ġproviding": 4412,
      "Ġelements": 4413,
      "Ġapplications": 4414,
      "Ġreceive": 4415,
      "Ġreceived": 4416,
      "ĠCenter": 4417,
      "ĠQuestion": 4418,
      "ĠQuestions": 4419,
      "Ġvirus": 4420,
      "ĠExtension": 4421,
      "Ġcollege": 4422,
      "println": 4423,
      "Ġmotion": 4424,
      "TextGenerator": 4425,
      "antusi": 4426,
      "Ġteachers": 4427,
      "ocolate": 4428,
      "Ġexactly": 4429,
      "Ġvertical": 4430,
      "Ġsignificant": 4431,
      "ĠFebruary": 4432,
      "ĠBaseball": 4433,
      "$,": 4434,
      "(-": 4435,
      "150": 4436,
      "52": 4437,
      "::": 4438,
      "And": 4439,
      "Dif": 4440,
      "EO": 4441,
      "Let": 4442,
      "Mark": 4443,
      "New": 4444,
      "OS": 4445,
      "PE": 4446,
      "[![": 4447,
      "gb": 4448,
      "gra": 4449,
      "hold": 4450,
      "lin": 4451,
      "lime": 4452,
      "mo": 4453,
      "pose": 4454,
      "sn": 4455,
      "wá»įn": 4456,
      "yogurt": 4457,
      "Ġ@": 4458,
      "Ġvers": 4459,
      "ĠÃł": 4460,
      "Ġtor": 4461,
      "iny": 4462,
      "oration": 4463,
      "orial": 4464,
      "Ġcross": 4465,
      "isions": 4466,
      "Ġwalk": 4467,
      "align": 4468,
      "arily": 4469,
      "Ġfrequ": 4470,
      "Ġannot": 4471,
      "Ġancient": 4472,
      "ington": 4473,
      "Ġber": 4474,
      "Ġdenom": 4475,
      "asm": 4476,
      "aste": 4477,
      "Ġthous": 4478,
      "ĠAfter": 4479,
      "ĠSO": 4480,
      "ĠSet": 4481,
      "ĠSov": 4482,
      "ĠServ": 4483,
      "rot": 4484,
      "Ġreads": 4485,
      "ĠTimes": 4486,
      "Ġevent": 4487,
      "Ġlas": 4488,
      "Ġlives": 4489,
      "ollow": 4490,
      "ĠCur": 4491,
      "ceed": 4492,
      "Ġgives": 4493,
      "Ġgreen": 4494,
      "Ġforms": 4495,
      "ĠPres": 4496,
      "ĠPop": 4497,
      "ĠPark": 4498,
      "ĠMany": 4499,
      "ĠBo": 4500,
      "ĠBer": 4501,
      "ĠBor": 4502,
      "ĠBas": 4503,
      "ĠBecause": 4504,
      "ĠRich": 4505,
      "ĠRob": 4506,
      "ida": 4507,
      "que": 4508,
      "irl": 4509,
      "ĠWork": 4510,
      "ĠEvery": 4511,
      "ĠEven": 4512,
      "ĠEuro": 4513,
      "hern": 4514,
      "ĠLa": 4515,
      "los": 4516,
      "Ġseat": 4517,
      "ĠOx": 4518,
      "Ġchance": 4519,
      "ostatistics": 4520,
      "ago": 4521,
      "ulting": 4522,
      "ĠInte": 4523,
      "Ġplus": 4524,
      "Ġplane": 4525,
      "pha": 4526,
      "Ġ\\[[": 4527,
      "ĠKe": 4528,
      "ĠChild": 4529,
      "Ġcommit": 4530,
      "ferences": 4531,
      "Ġarg": 4532,
      "Ġarticle": 4533,
      "Ġequivalent": 4534,
      "cret": 4535,
      "veloper": 4536,
      "Ġsolving": 4537,
      "aws": 4538,
      "à±ĭ": 4539,
      "That": 4540,
      "ĠÐ¼": 4541,
      "ĠDef": 4542,
      "swers": 4543,
      "ĠScratch": 4544,
      "Ġproduced": 4545,
      "ypot": 4546,
      "Ġparameter": 4547,
      "Ġhelpful": 4548,
      "Ġlocation": 4549,
      "Ġhighly": 4550,
      "Ġeveryone": 4551,
      "ĠHealth": 4552,
      "Ġstarted": 4553,
      "Ġ1999": 4554,
      "Ã³n": 4555,
      "ÐµÐ½": 4556,
      "ociety": 4557,
      "ancial": 4558,
      "Ġcalculated": 4559,
      "Ġlaun": 4560,
      "ĠOnline": 4561,
      "pendicular": 4562,
      "Ġplaced": 4563,
      "Ġtypes": 4564,
      "Ġhighest": 4565,
      "Ġtrying": 4566,
      "Ġautom": 4567,
      "Ġindividuals": 4568,
      "Ġbaseball": 4569,
      "Quest": 4570,
      "Ġillust": 4571,
      "icrobial": 4572,
      "ĠInternet": 4573,
      "Ġprivate": 4574,
      "ĠSaints": 4575,
      "ĠAfrica": 4576,
      "Ġdrug": 4577,
      "ĠAustral": 4578,
      "EMAIL": 4579,
      "\">": 4580,
      "AS": 4581,
      "BI": 4582,
      "IG": 4583,
      "IM": 4584,
      "Mon": 4585,
      "See": 4586,
      "aj": 4587,
      "bour": 4588,
      "hain": 4589,
      "kg": 4590,
      "like": 4591,
      "md": 4592,
      "more": 4593,
      "npm": 4594,
      "oat": 4595,
      "pet": 4596,
      "rd": 4597,
      "rue": 4598,
      "sl": 4599,
      "title": 4600,
      "va": 4601,
      "yles": 4602,
      "yme": 4603,
      "za": 4604,
      "Ġet": 4605,
      "Ġid": 4606,
      "reens": 4607,
      "eries": 4608,
      "att": 4609,
      "Ġsnow": 4610,
      "ita": 4611,
      "Ġwomen": 4612,
      "aran": 4613,
      "Ġpin": 4614,
      "Ġfair": 4615,
      "Ġbacter": 4616,
      "Ġmask": 4617,
      "Ġmicro": 4618,
      "Ġtowards": 4619,
      "ili": 4620,
      "ĠAnt": 4621,
      "ĠSD": 4622,
      "rose": 4623,
      "Ġnature": 4624,
      "Ġrev": 4625,
      "Ġrepl": 4626,
      "Ġrelev": 4627,
      "Ġeight": 4628,
      "Ġisn": 4629,
      "Ġisland": 4630,
      "ĠCS": 4631,
      "images": 4632,
      "Ġgb": 4633,
      "Ġgl": 4634,
      "otype": 4635,
      "Ġforce": 4636,
      "Ġforward": 4637,
      "ĠPort": 4638,
      "ĠMost": 4639,
      "ĠBr": 4640,
      "ĠBank": 4641,
      "ĠBuild": 4642,
      "ĠRun": 4643,
      "ĠRandom": 4644,
      "iday": 4645,
      "ĠWed": 4646,
      "seud": 4647,
      "ifier": 4648,
      "umb": 4649,
      "uments": 4650,
      "Ġstates": 4651,
      "Ġproport": 4652,
      "Ġprofit": 4653,
      "ĠNut": 4654,
      "ĠNumber": 4655,
      "ĠLand": 4656,
      "aker": 4657,
      "ĠOff": 4658,
      "Ġ`(": 4659,
      "Ġatmosp": 4660,
      "Ġrule": 4661,
      "Ġchoice": 4662,
      "agan": 4663,
      "à°µ": 4664,
      "Ġnotes": 4665,
      "ĠJames": 4666,
      "ĠJuly": 4667,
      "Ġuna": 4668,
      "Ġwaste": 4669,
      "odon": 4670,
      "ĠIns": 4671,
      "áº§": 4672,
      "Ġ48": 4673,
      "active": 4674,
      "Ġneigh": 4675,
      "aven": 4676,
      "Ġqual": 4677,
      "ĠĠĠĠĠĠĠĠĠĠ": 4678,
      "reek": 4679,
      "weight": 4680,
      "Ġfinding": 4681,
      "Ġrapid": 4682,
      "Ġrole": 4683,
      "Ġsets": 4684,
      "ocker": 4685,
      "ĠâĶ": 4686,
      "Ġfeed": 4687,
      "Ġrepo": 4688,
      "Ã¡n": 4689,
      "Ġrequires": 4690,
      "Ġsequencing": 4691,
      "Ġparticle": 4692,
      "ĠSyrians": 4693,
      "Ġplayers": 4694,
      "Ġstarting": 4695,
      "Ġattack": 4696,
      "Ġpercentage": 4697,
      "________": 4698,
      "ART": 4699,
      "Ġmeters": 4700,
      "Ġinches": 4701,
      "stitution": 4702,
      "which": 4703,
      "Ġrestrict": 4704,
      "Ġplanning": 4705,
      "upport": 4706,
      "Ġreduce": 4707,
      "Ġannual": 4708,
      "Ġdeployed": 4709,
      "Ġphysic": 4710,
      "Ġexpected": 4711,
      "ĠFlor": 4712,
      "Ġconda": 4713,
      "Ġbenefits": 4714,
      "Ġmolecul": 4715,
      "âĶĢâĶĢ": 4716,
      "Ġcoordinate": 4717,
      "áº¥t": 4718,
      "ĠSpecial": 4719,
      "Ġtraditional": 4720,
      "ĠEvans": 4721,
      "àµį": 4722,
      "Ġdouble": 4723,
      "Ġrisk": 4724,
      "Ġpolitical": 4725,
      "Ġbehavior": 4726,
      "Ġangles": 4727,
      "ĠBuddha": 4728,
      "ĠArnim": 4729,
      "ĠEurope": 4730,
      "101": 4731,
      "63": 4732,
      "91": 4733,
      "AST": 4734,
      "Col": 4735,
      "LU": 4736,
      "MS": 4737,
      "\\;": 4738,
      "action": 4739,
      "gress": 4740,
      "lies": 4741,
      "mn": 4742,
      "mas": 4743,
      "max": 4744,
      "opt": 4745,
      "off": 4746,
      "png": 4747,
      "scre": 4748,
      "tra": 4749,
      "uits": 4750,
      "wide": 4751,
      "ximately": 4752,
      "{(": 4753,
      "Ã¹": 4754,
      "Ð²": 4755,
      "Ġult": 4756,
      "Ġtá»": 4757,
      "atically": 4758,
      "enome": 4759,
      "enior": 4760,
      "itative": 4761,
      "Ġcool": 4762,
      "Ġcopy": 4763,
      "isl": 4764,
      "arrow": 4765,
      "Ġflo": 4766,
      "ederal": 4767,
      "Ġbir": 4768,
      "Ġbound": 4769,
      "Ġmarg": 4770,
      "omes": 4771,
      "ĠAri": 4772,
      "stract": 4773,
      "ĠSk": 4774,
      "ĠSmall": 4775,
      "Ġlos": 4776,
      "oline": 4777,
      "ĠCro": 4778,
      "imum": 4779,
      "Ġgit": 4780,
      "ĠID": 4781,
      "amic": 4782,
      "ĠModel": 4783,
      "ĠBet": 4784,
      "ĠHistory": 4785,
      "ided": 4786,
      "idae": 4787,
      "ellow": 4788,
      "ĠFruit": 4789,
      "ĠDavid": 4790,
      "ĠvÃł": 4791,
      "ĠLife": 4792,
      "Ġ->": 4793,
      "``{": 4794,
      "Ġheld": 4795,
      "ends": 4796,
      "ĠInstitute": 4797,
      "anger": 4798,
      "ints": 4799,
      "clud": 4800,
      "Ġability": 4801,
      "Ġperm": 4802,
      "ĠReport": 4803,
      "Ġquick": 4804,
      "apid": 4805,
      "Ġà¨ª": 4806,
      "ĠYogurt": 4807,
      "Ġupd": 4808,
      "128": 4809,
      "Ġarch": 4810,
      "rame": 4811,
      "Ġprevent": 4812,
      "Ġsubmit": 4813,
      "Ġactivity": 4814,
      "Ġinstances": 4815,
      "ĠâĬ": 4816,
      "Ġinteger": 4817,
      "2011": 4818,
      "Ġdeveloping": 4819,
      "ometric": 4820,
      "Request": 4821,
      "Ġtransform": 4822,
      "ĠPhil": 4823,
      "ĠPhys": 4824,
      "144": 4825,
      "Ġflat": 4826,
      "Ġmedium": 4827,
      "Ġinteresting": 4828,
      "Ġá»įmá»į": 4829,
      "lishing": 4830,
      "Ġcalculate": 4831,
      "Ġcalculator": 4832,
      "Ġlanguages": 4833,
      "Ġpaid": 4834,
      "iscuits": 4835,
      "Ġoptions": 4836,
      "ĠSalmon": 4837,
      "Ġprotein": 4838,
      "Ġmaintain": 4839,
      "Ġoperation": 4840,
      "Ġslight": 4841,
      "ography": 4842,
      "haps": 4843,
      "Ġoccur": 4844,
      "CTION": 4845,
      "ĠBiostatistics": 4846,
      "Ġdogs": 4847,
      "ĠProblems": 4848,
      "Ġbeginning": 4849,
      "Ġcreating": 4850,
      "Ġrelationship": 4851,
      "Ġmilitary": 4852,
      "Ġinmates": 4853,
      "Ġnecessary": 4854,
      "Ġnormal": 4855,
      "ĠgiÃ¡": 4856,
      "ĠSilver": 4857,
      "Ġpotential": 4858,
      "Ġimmigrants": 4859,
      "Ġdenomin": 4860,
      "ĠSoviet": 4861,
      "Ġmolecules": 4862,
      "$\\": 4863,
      "->": 4864,
      "71": 4865,
      "77": 4866,
      "Ar": 4867,
      "CH": 4868,
      "GWR": 4869,
      "July": 4870,
      "OL": 4871,
      "Or": 4872,
      "bon": 4873,
      "code": 4874,
      "equ": 4875,
      "fun": 4876,
      "host": 4877,
      "ih": 4878,
      "lier": 4879,
      "med": 4880,
      "mart": 4881,
      "no": 4882,
      "pine": 4883,
      "ras": 4884,
      "tse": 4885,
      "tings": 4886,
      "words": 4887,
      "yper": 4888,
      "Â°": 4889,
      "ÄŁ": 4890,
      "Ġu": 4891,
      "Ġil": 4892,
      "ĠðĿĽ": 4893,
      "Ġtens": 4894,
      "inci": 4895,
      "Ġsow": 4896,
      "enced": 4897,
      "ano": 4898,
      "Ġwild": 4899,
      "Ġfa": 4900,
      "Ġfarm": 4901,
      "Ġbisect": 4902,
      "icit": 4903,
      "oud": 4904,
      "Ġmind": 4905,
      "Ġmode": 4906,
      "lets": 4907,
      "Ġdam": 4908,
      "ĠAv": 4909,
      "ĠAut": 4910,
      "Ġhous": 4911,
      "Ġhund": 4912,
      "Ġhosp": 4913,
      "Ġhope": 4914,
      "ĠSocial": 4915,
      "ĠSuper": 4916,
      "Ġred": 4917,
      "ĠTrig": 4918,
      "Ġlá»": 4919,
      "rap": 4920,
      "ĠCity": 4921,
      "ĠCON": 4922,
      "ĠIce": 4923,
      "igen": 4924,
      "ams": 4925,
      "ĠPat": 4926,
      "ĠPub": 4927,
      "ĠMel": 4928,
      "ĠRs": 4929,
      "ĠWest": 4930,
      "ĠEner": 4931,
      "ĠDiv": 4932,
      "ategor": 4933,
      "Ġproced": 4934,
      "Ġdecre": 4935,
      "à¨µ": 4936,
      "ĠNO": 4937,
      "ĠNight": 4938,
      "ĠLight": 4939,
      "Ġseven": 4940,
      "Ġseeds": 4941,
      "Ġkan": 4942,
      "Ġheader": 4943,
      "order": 4944,
      "acterial": 4945,
      "Ġadapt": 4946,
      "enses": 4947,
      "105": 4948,
      "Ġperfect": 4949,
      "ĠRec": 4950,
      "Ġclick": 4951,
      "ownload": 4952,
      "Ġcompan": 4953,
      "Ġserious": 4954,
      "merce": 4955,
      "Ġscience": 4956,
      "Ġspent": 4957,
      "Ġfund": 4958,
      "Ġà¶¸": 4959,
      "Ġcolor": 4960,
      "Ġcollect": 4961,
      "Ð°ÑĤ": 4962,
      "Ġ95": 4963,
      "issues": 4964,
      "Ġprep": 4965,
      "Ġpret": 4966,
      "awa": 4967,
      "ĠArt": 4968,
      "à¤¾": 4969,
      "aha": 4970,
      "ĠDecember": 4971,
      "Ġfeature": 4972,
      "Ġconsist": 4973,
      "ĠWeek": 4974,
      "ĠSee": 4975,
      "Ġ180": 4976,
      "cohol": 4977,
      "value": 4978,
      "ðĿľ": 4979,
      "Ġsquared": 4980,
      "Ġcaused": 4981,
      "Ġimmune": 4982,
      "Ġgrowing": 4983,
      "Ġprotection": 4984,
      "Example": 4985,
      "ĠIraqi": 4986,
      "cheese": 4987,
      "Ġoperations": 4988,
      "Ġskills": 4989,
      "ĠSolving": 4990,
      "ĠCheese": 4991,
      "Ġvisual": 4992,
      "ENT": 4993,
      "Ġreduced": 4994,
      "ĠFunction": 4995,
      "ounter": 4996,
      "carrots": 4997,
      "Ġmoved": 4998,
      "Ġideas": 4999,
      "Ġlatest": 5000,
      "Ø§ÙĦ": 5001,
      "Ġgeometry": 5002,
      "Ġexisting": 5003,
      "Ġbusinesses": 5004,
      "Ġindependent": 5005,
      "à¨¼à¨¿": 5006,
      "ĠDevadatta": 5007,
      "aturday": 5008,
      "Ġmoment": 5009,
      "Ġdivided": 5010,
      "Ġaccurate": 5011,
      "ĠGarlic": 5012,
      "Ġconcern": 5013,
      "ĠOxford": 5014,
      "\");": 5015,
      "600": 5016,
      "=\\": 5017,
      "={": 5018,
      "By": 5019,
      "Dire": 5020,
      "Fast": 5021,
      "Hall": 5022,
      "Jan": 5023,
      "June": 5024,
      "Pl": 5025,
      "Sy": 5026,
      "Sim": 5027,
      "ape": 5028,
      "cut": 5029,
      "core": 5030,
      "chers": 5031,
      "df": 5032,
      "ground": 5033,
      "iable": 5034,
      "tes": 5035,
      "uzz": 5036,
      "vue": 5037,
      "walnut": 5038,
      "ym": 5039,
      "Ð±": 5040,
      "Ġum": 5041,
      "Ļt": 5042,
      "inf": 5043,
      "ino": 5044,
      "inst": 5045,
      "onic": 5046,
      "atal": 5047,
      "Ġsat": 5048,
      "Ġslow": 5049,
      "itect": 5050,
      "anut": 5051,
      "Ġcard": 5052,
      "Ġcards": 5053,
      "Ġwa": 5054,
      "Ġpen": 5055,
      "Ġpray": 5056,
      "Ġbug": 5057,
      "Ġbox": 5058,
      "Ġbillion": 5059,
      "Ġmale": 5060,
      "asy": 5061,
      "ĠAD": 5062,
      "ĠAp": 5063,
      "Ġhands": 5064,
      "rote": 5065,
      "ĠlÃł": 5066,
      "Ġlift": 5067,
      "rack": 5068,
      "olf": 5069,
      "ĠCore": 5070,
      "Ġgames": 5071,
      "otal": 5072,
      "ami": 5073,
      "amed": 5074,
      "ament": 5075,
      "urance": 5076,
      "ĠBC": 5077,
      "ĠRit": 5078,
      "ĠRose": 5079,
      "ĠHar": 5080,
      "ido": 5081,
      "elcome": 5082,
      "ĠGreen": 5083,
      "ĠFra": 5084,
      "Ġstyles": 5085,
      "Ġalcohol": 5086,
      "ĠDr": 5087,
      "ĠDate": 5088,
      "Ġvideo": 5089,
      "result": 5090,
      "respon": 5091,
      "Ġcomfort": 5092,
      "à¶ľ": 5093,
      "akan": 5094,
      "ĠOF": 5095,
      "ĠOur": 5096,
      "alls": 5097,
      "ession": 5098,
      "ocent": 5099,
      "Ġ38": 5100,
      "Ġ2017": 5101,
      "Ġshift": 5102,
      "àª®": 5103,
      "Ġlets": 5104,
      "Ġsugar": 5105,
      "Ġ07": 5106,
      "ĠReader": 5107,
      "Ġjáº¹": 5108,
      "Ġcontract": 5109,
      "Ġmanager": 5110,
      "Ġsche": 5111,
      "Ġprefer": 5112,
      "organ": 5113,
      "ĠAddition": 5114,
      "atively": 5115,
      "ĠAlso": 5116,
      "inese": 5117,
      "Ġassign": 5118,
      "Ġregroup": 5119,
      "ĠDevelopment": 5120,
      "meal": 5121,
      "Ġrepository": 5122,
      "shields": 5123,
      "Ġexpand": 5124,
      "ĠCla": 5125,
      "State": 5126,
      "Ġparalle": 5127,
      "Ġgenerally": 5128,
      "Ġlocated": 5129,
      "Ġowners": 5130,
      "aneous": 5131,
      "Ġseconds": 5132,
      "Ġavoid": 5133,
      "Ġincreasing": 5134,
      "iques": 5135,
      "ĠAmendment": 5136,
      "ĠCarrots": 5137,
      "naps": 5138,
      "etcode": 5139,
      "ðĿĳ¢": 5140,
      "garlic": 5141,
      "Ġtypically": 5142,
      "cdot": 5143,
      "rimp": 5144,
      "ĠĠĠĠĠĠĠĠĠĠĠĠĠĠĠĠĠĠĠĠĠĠĠ": 5145,
      "Ġpackage": 5146,
      "Ġerror": 5147,
      "Ġcontinuity": 5148,
      "Ġparticularly": 5149,
      "ĠActivity": 5150,
      "Ġdocumentation": 5151,
      "Ð°Ð¹": 5152,
      "Ġdescribed": 5153,
      "Ġestimated": 5154,
      "ĠGeneral": 5155,
      "ĠSamhain": 5156,
      "``````": 5157,
      "Ġexecut": 5158,
      "default": 5159,
      "Ġconducted": 5160,
      "Ã¨ge": 5161,
      "ĠMulti": 5162,
      "Ġhours": 5163,
      "Ġcouple": 5164,
      "latest": 5165,
      "Ġhundred": 5166,
      "ĠEnergy": 5167,
      "68": 5168,
      "=-": 5169,
      "=`": 5170,
      "?\"": 5171,
      "Am": 5172,
      "Count": 5173,
      "DIT": 5174,
      "GP": 5175,
      "Grilled": 5176,
      "PR": 5177,
      "buck": 5178,
      "bioinformatics": 5179,
      "clo": 5180,
      "fly": 5181,
      "ga": 5182,
      "gus": 5183,
      "ju": 5184,
      "list": 5185,
      "lá»į": 5186,
      "main": 5187,
      "mask": 5188,
      "rated": 5189,
      "rick": 5190,
      "tu": 5191,
      "top": 5192,
      "then": 5193,
      "wheat": 5194,
      "Ø±": 5195,
      "Ġtitle": 5196,
      "inated": 5197,
      "Ġsine": 5198,
      "itar": 5199,
      "Ġcorn": 5200,
      "ĠcÃ³": 5201,
      "ises": 5202,
      "isons": 5203,
      "Ġop": 5204,
      "Ġwait": 5205,
      "Ġwinter": 5206,
      "Ġpor": 5207,
      "Ġbad": 5208,
      "Ġbring": 5209,
      "Ġblock": 5210,
      "Ġmis": 5211,
      "Ġmention": 5212,
      "lean": 5213,
      "Ġdal": 5214,
      "Ġthus": 5215,
      "ĠSur": 5216,
      "ĠSweet": 5217,
      "ĠSince": 5218,
      "ĠSaturday": 5219,
      "Ġnet": 5220,
      "Ġnice": 5221,
      "Ġnorth": 5222,
      "Ġlif": 5223,
      "ĠCons": 5224,
      "using": 5225,
      "Ġglobal": 5226,
      "ota": 5227,
      "otic": 5228,
      "Ġyii": 5229,
      "ĠMac": 5230,
      "ulate": 5231,
      "ulated": 5232,
      "adas": 5233,
      "ĠRober": 5234,
      "quad": 5235,
      "ĠWheat": 5236,
      "ĠGame": 5237,
      "ĠGroup": 5238,
      "ĠĠĠĠčĊ": 5239,
      "ĠFact": 5240,
      "Ġstra": 5241,
      "ĠEm": 5242,
      "andw": 5243,
      "andy": 5244,
      "illim": 5245,
      "ooper": 5246,
      "aced": 5247,
      "Ġvá»": 5248,
      "ĠNOT": 5249,
      "ĠLime": 5250,
      "loc": 5251,
      "Ġselection": 5252,
      "Ġ```": 5253,
      "à·ľ": 5254,
      "Ġrich": 5255,
      "Ġround": 5256,
      "Ġ32": 5257,
      "ĠJob": 5258,
      "Ġ41": 5259,
      "Ġplot": 5260,
      "ĠĠĠčĊ": 5261,
      "ĠKE": 5262,
      "soft": 5263,
      "ĠReview": 5264,
      "Ġ500": 5265,
      "Ġenable": 5266,
      "Ġarri": 5267,
      "Ġtrack": 5268,
      "sert": 5269,
      "ĠAlthough": 5270,
      "ĠAnalysis": 5271,
      "encrypt": 5272,
      "Ġdetails": 5273,
      "2012": 5274,
      "type": 5275,
      "Ġinterpret": 5276,
      "Ġdivers": 5277,
      "ashion": 5278,
      "ĠClub": 5279,
      "anya": 5280,
      "Ġconstra": 5281,
      "ĠAsk": 5282,
      "anned": 5283,
      "Ġmemory": 5284,
      "á¹£a": 5285,
      "icture": 5286,
      "Ġgenerated": 5287,
      "Ġcentral": 5288,
      "2002": 5289,
      "Ġdistribution": 5290,
      "ĠStudent": 5291,
      "Ġblue": 5292,
      "anguage": 5293,
      "otta": 5294,
      "Ġmedical": 5295,
      "Ġresear": 5296,
      "Ġgraphs": 5297,
      "Ġstatement": 5298,
      "icrosoft": 5299,
      "ĠSoftware": 5300,
      "Ġspeech": 5301,
      "Ġinside": 5302,
      "Ġinspect": 5303,
      "Ġincident": 5304,
      "Ġteams": 5305,
      "ributed": 5306,
      "atistical": 5307,
      "à®ķà®³": 5308,
      "Ġcapital": 5309,
      "poration": 5310,
      "opsony": 5311,
      "Ġcontroll": 5312,
      "ĠBlack": 5313,
      "Ġobjective": 5314,
      "Ġdivision": 5315,
      ")\\].": 5316,
      "Apple": 5317,
      "Ġradius": 5318,
      "Ġvehic": 5319,
      "Ġassembly": 5320,
      "Ġcomponent": 5321,
      "Ġprimary": 5322,
      "Ġwavefront": 5323,
      "Ġstreng": 5324,
      "Ġmá»Ļt": 5325,
      "Ġachieve": 5326,
      "ĠMagazine": 5327,
      "Ġefforts": 5328,
      "ĠFrance": 5329,
      "Ġstrategic": 5330,
      "moke": 5331,
      "Ġfemale": 5332,
      "Ġá»Į": 5333,
      "Ġtouch": 5334,
      "nesday": 5335,
      "Ġrelevant": 5336,
      "Ġdenominator": 5337,
      "Ġpretty": 5338,
      "ĠRosemary": 5339,
      "400": 5340,
      "512": 5341,
      "At": 5342,
      "Bioinformatics": 5343,
      "From": 5344,
      "LO": 5345,
      "More": 5346,
      "Not": 5347,
      "Our": 5348,
      "Pe": 5349,
      "Please": 5350,
      "QU": 5351,
      "Run": 5352,
      "Sol": 5353,
      "TP": 5354,
      "UR": 5355,
      "Web": 5356,
      "blog": 5357,
      "corn": 5358,
      "cology": 5359,
      "eal": 5360,
      "gn": 5361,
      "hib": 5362,
      "jon": 5363,
      "joy": 5364,
      "ku": 5365,
      "la": 5366,
      "lamb": 5367,
      "mical": 5368,
      "milk": 5369,
      "pone": 5370,
      "var": 5371,
      "war": 5372,
      "wá»į": 5373,
      "Ã²": 5374,
      "ÙĨ": 5375,
      "Ġib": 5376,
      "Ġ....": 5377,
      "Ġta": 5378,
      "Ġtend": 5379,
      "Ġtail": 5380,
      "Ġtree": 5381,
      "Ġtaking": 5382,
      "innam": 5383,
      "rehens": 5384,
      "era": 5385,
      "atform": 5386,
      "attle": 5387,
      "Ġsal": 5388,
      "Ġsrc": 5389,
      "ori": 5390,
      "ena": 5391,
      "itial": 5392,
      "anation": 5393,
      "Ġcitiz": 5394,
      "Ġod": 5395,
      "ala": 5396,
      "arp": 5397,
      "Ġfavor": 5398,
      "Ġbrow": 5399,
      "ications": 5400,
      "ounce": 5401,
      "Ġmá»į": 5402,
      "Ġmobile": 5403,
      "Ġmessage": 5404,
      "level": 5405,
      "Ġdrop": 5406,
      "Ġdatas": 5407,
      "Ġdrink": 5408,
      "Ġincome": 5409,
      "ented": 5410,
      "ĠAB": 5411,
      "Ġhistor": 5412,
      "Ġng": 5413,
      "Ġnut": 5414,
      "ĠnÃły": 5415,
      "Ġreach": 5416,
      "Ġreduction": 5417,
      "ĠTurkey": 5418,
      "Ġlun": 5419,
      "Ġgrid": 5420,
      "ĠIC": 5421,
      "ĠIre": 5422,
      "unal": 5423,
      "ĠPine": 5424,
      "ĠPublic": 5425,
      "ĠMen": 5426,
      "ĠMoney": 5427,
      "ĠMass": 5428,
      "ĠMiss": 5429,
      "ĠMiddle": 5430,
      "ĠMuseum": 5431,
      "ully": 5432,
      "ĠBre": 5433,
      "ĠBen": 5434,
      "ĠRem": 5435,
      "ĠHT": 5436,
      "idistant": 5437,
      "eles": 5438,
      "rip": 5439,
      "sect": 5440,
      "search": 5441,
      "ĠGPC": 5442,
      "ifically": 5443,
      "ĠFried": 5444,
      "Ġstatistics": 5445,
      "Ġstructure": 5446,
      "ĠDire": 5447,
      "Ġprogress": 5448,
      "Ġcong": 5449,
      "#####": 5450,
      "aces": 5451,
      "à¨£": 5452,
      "à¨Ĩ": 5453,
      "ĠNich": 5454,
      "ĠLet": 5455,
      "ĠList": 5456,
      "ĠLord": 5457,
      "ĠLicense": 5458,
      "istach": 5459,
      "Ġsex": 5460,
      "Ġweather": 5461,
      "Ġexc": 5462,
      "Ġexercise": 5463,
      "Ġ==": 5464,
      "orem": 5465,
      "Ġki": 5466,
      "ocode": 5467,
      "uster": 5468,
      "Ġshaded": 5469,
      "astry": 5470,
      "These": 5471,
      "ĠInformation": 5472,
      "Ġsuff": 5473,
      "Ġ04": 5474,
      "clark": 5475,
      "ensus": 5476,
      "ensitive": 5477,
      "avender": 5478,
      "Ġperpendicular": 5479,
      "Ġperhaps": 5480,
      "ĠChina": 5481,
      "Ġcontact": 5482,
      "Ġapply": 5483,
      "web": 5484,
      "Ġequals": 5485,
      "Ġequidistant": 5486,
      "Ġspring": 5487,
      "ĠUnit": 5488,
      "Ġfunding": 5489,
      "Ġ2004": 5490,
      "iana": 5491,
      "Ġà¶¯": 5492,
      "ribs": 5493,
      "Ġrace": 5494,
      "Ġvalid": 5495,
      "à¤¿": 5496,
      "Ġfollows": 5497,
      "Ġphase": 5498,
      "Ġdescription": 5499,
      "ĠAnn": 5500,
      "Ġregion": 5501,
      "Ġregression": 5502,
      "Ġactor": 5503,
      "Ġâī": 5504,
      "à«ģ": 5505,
      "Ġclassic": 5506,
      "Ġvariety": 5507,
      "Ġearlier": 5508,
      "Ġà°ħ": 5509,
      "ĠÄĳÃ£": 5510,
      "Ġremember": 5511,
      "Ġcalls": 5512,
      "Ġedit": 5513,
      "ĠSyria": 5514,
      "Ġcentre": 5515,
      "Ġcenter": 5516,
      "Ġenter": 5517,
      "Ġentry": 5518,
      "Ġstarts": 5519,
      "3333": 5520,
      "Ġcarry": 5521,
      "Ġcorrespon": 5522,
      "ĠSpace": 5523,
      "Ġperiodic": 5524,
      "Ġprogramming": 5525,
      "scal": 5526,
      "Ġsummer": 5527,
      "ĠTherefore": 5528,
      "Ġinspe": 5529,
      "Ġfields": 5530,
      "Ġincor": 5531,
      "ĠIndones": 5532,
      "Ġproperties": 5533,
      "Ġgasoline": 5534,
      "ĠPeople": 5535,
      "ðĿĳĸ": 5536,
      "Ġfinancial": 5537,
      "Ġletter": 5538,
      "Ġcourt": 5539,
      "ĠCheck": 5540,
      "ĠCanada": 5541,
      "Ġremains": 5542,
      "Ġbiggest": 5543,
      "Ġhappen": 5544,
      "Ġconfidence": 5545,
      "Ġpackages": 5546,
      "Ġelectron": 5547,
      "Ġbenefit": 5548,
      "ĠkhÃ´ng": 5549,
      "Ġchallenge": 5550,
      "oeclark": 5551,
      "details": 5552,
      "going": 5553,
      "Ġaltitude": 5554,
      "Ġestablish": 5555,
      "iá»ĩ": 5556,
      "Ġcomponents": 5557,
      "Ġeye": 5558,
      "ĠLaboratory": 5559,
      "Ġobserved": 5560,
      "Ġsituation": 5561,
      "Ġelasticity": 5562,
      "Step": 5563,
      "Ġlikes": 5564,
      "ĠElementary": 5565,
      "Ġbirds": 5566,
      "rosemary": 5567,
      "seudocode": 5568,
      "Ġcompanies": 5569,
      "innamon": 5570,
      "44": 5571,
      "DE": 5572,
      "Dep": 5573,
      "FI": 5574,
      "JE": 5575,
      "MD": 5576,
      "ME": 5577,
      "Ne": 5578,
      "Some": 5579,
      "Transformer": 5580,
      "World": 5581,
      "ael": 5582,
      "bin": 5583,
      "bre": 5584,
      "can": 5585,
      "city": 5586,
      "java": 5587,
      "joeclark": 5588,
      "men": 5589,
      "null": 5590,
      "navigation": 5591,
      "potatoes": 5592,
      "rast": 5593,
      "sed": 5594,
      "spec": 5595,
      "spect": 5596,
      "sqrt": 5597,
      "vanilla": 5598,
      "water": 5599,
      "{+": 5600,
      "},": 5601,
      "Ã±": 5602,
      "Æ¡": 5603,
      "Ð¹": 5604,
      "ÛĮ": 5605,
      "ï¼": 5606,
      "ĠÑĤ": 5607,
      "Ľi": 5608,
      "inet": 5609,
      "erved": 5610,
      "Ġsend": 5611,
      "Ġself": 5612,
      "Ġsense": 5613,
      "Ġsouth": 5614,
      "itable": 5615,
      "itrus": 5616,
      "ante": 5617,
      "Ġcam": 5618,
      "Ġcart": 5619,
      "isms": 5620,
      "Ġwood": 5621,
      "Ġwife": 5622,
      "Ġwrote": 5623,
      "Ġpet": 5624,
      "Ġpip": 5625,
      "Ġpark": 5626,
      "Ġpush": 5627,
      "Ġfreedom": 5628,
      "edu": 5629,
      "Ġbacterial": 5630,
      "icine": 5631,
      "Ġmor": 5632,
      "Ġmouth": 5633,
      "lete": 5634,
      "Ġinform": 5635,
      "Ġtoward": 5636,
      "iler": 5637,
      "ĠAR": 5638,
      "string": 5639,
      "ĠSing": 5640,
      "ĠSch": 5641,
      "rol": 5642,
      "ĠTur": 5643,
      "ĠTool": 5644,
      "ĠTrans": 5645,
      "Ġep": 5646,
      "Ġefficient": 5647,
      "Ġliving": 5648,
      "Ġ1000": 5649,
      "Ġgirl": 5650,
      "ĠIB": 5651,
      "otion": 5652,
      "iggs": 5653,
      "amil": 5654,
      "Ġformer": 5655,
      "ĠPotatoes": 5656,
      "ĠMC": 5657,
      "ĠMor": 5658,
      "ades": 5659,
      "ĠHave": 5660,
      "elow": 5661,
      "iring": 5662,
      "ĠWood": 5663,
      "ĠWestern": 5664,
      "rier": 5665,
      "ĠGreat": 5666,
      "ĠGiven": 5667,
      "ifies": 5668,
      "ĠFe": 5669,
      "Ġstory": 5670,
      "Ġstream": 5671,
      "ĠEss": 5672,
      "ĠDem": 5673,
      "Ġcondition": 5674,
      "oop": 5675,
      "acity": 5676,
      "this": 5677,
      "ĠNote": 5678,
      "Ġcoming": 5679,
      "uba": 5680,
      "Ġkilled": 5681,
      "Ġráº¹": 5682,
      "compl": 5683,
      "``//": 5684,
      "à°¡": 5685,
      "ption": 5686,
      "ptions": 5687,
      "Ġ2016": 5688,
      "ĠJew": 5689,
      "oding": 5690,
      "ĠInv": 5691,
      "ffee": 5692,
      "ĠStyle": 5693,
      "Ġadvert": 5694,
      "ella": 5695,
      "ensional": 5696,
      "ĠThom": 5697,
      "ĠThree": 5698,
      "Ġquarter": 5699,
      "ĠChinese": 5700,
      "Ġclimate": 5701,
      "ÂłÂłÂłÂłÂł": 5702,
      "Ġà¨«": 5703,
      "ĠVari": 5704,
      "ressions": 5705,
      "Ġcompare": 5706,
      "ports": 5707,
      "Ġtrain": 5708,
      "Ġspend": 5709,
      "Ġspread": 5710,
      "Ġadding": 5711,
      "Ġà¶½": 5712,
      "Ġà¶Ĩ": 5713,
      "Ġcold": 5714,
      "2021": 5715,
      "ĠWho": 5716,
      "ĠWhite": 5717,
      "Ġrad": 5718,
      "Ġrare": 5719,
      "Ġprec": 5720,
      "Ġroll": 5721,
      "Ġgoal": 5722,
      "Ġcoast": 5723,
      "2017": 5724,
      "Ġsupply": 5725,
      "à«ĭ": 5726,
      "Ġ</": 5727,
      "ĠQuadratic": 5728,
      "Ġdiameter": 5729,
      "ĠClick": 5730,
      "Ġpara": 5731,
      "Ġsurpr": 5732,
      "Ġeverything": 5733,
      "Ġplaying": 5734,
      "Ġlooks": 5735,
      "Ġtransl": 5736,
      "Ġreflect": 5737,
      "Ġsupported": 5738,
      "ÑĭÐ½": 5739,
      "Ġsymb": 5740,
      "Ġreturned": 5741,
      "Ġincreases": 5742,
      "Ġeasier": 5743,
      "Ġcontainer": 5744,
      "oidal": 5745,
      "ukan": 5746,
      "ĠâĪļ": 5747,
      "Ġtechnology": 5748,
      "Ġtechniques": 5749,
      "Ð¾Ð½": 5750,
      "ĠSteve": 5751,
      "Ġtopics": 5752,
      "ĠColle": 5753,
      "Ġoccurs": 5754,
      "Ġhappens": 5755,
      "Ġolder": 5756,
      "Ġportion": 5757,
      "Ġtreaty": 5758,
      "Ġdivide": 5759,
      "Ġsuccessful": 5760,
      "ĠDesign": 5761,
      "ĠOutput": 5762,
      "Ġbehind": 5763,
      "Ġstrategy": 5764,
      "Ġpainting": 5765,
      "Ġcoordinates": 5766,
      "Ġturned": 5767,
      "Ġmagazine": 5768,
      "Ã£o": 5769,
      "Ġestablished": 5770,
      "Ġfriends": 5771,
      "ĠValue": 5772,
      "Ġclimb": 5773,
      "Ġquantity": 5774,
      "Ġearthqu": 5775,
      "Ġliterature": 5776,
      "Ġmultiply": 5777,
      "Ġchallenges": 5778,
      "ĠCreate": 5779,
      "ĠMexico": 5780,
      "Ġmachine": 5781,
      "Ġcharges": 5782,
      "Ġapplied": 5783,
      "Ġprofessional": 5784,
      "gbáº¹": 5785,
      "Ġannotation": 5786,
      "Question": 5787,
      "ĠAustralia": 5788,
      "ĠWednesday": 5789,
      "tseemann": 5790,
      "ĠNichol": 5791,
      "Ġincorpor": 5792,
      ")/": 5793,
      "53": 5794,
      "59": 5795,
      "61": 5796,
      "74": 5797,
      "83": 5798,
      ">`": 5799,
      "According": 5800,
      "Can": 5801,
      "Given": 5802,
      "Last": 5803,
      "Math": 5804,
      "Orange": 5805,
      "Pr": 5806,
      "Sk": 5807,
      "Sub": 5808,
      "TE": 5809,
      "TO": 5810,
      "Type": 5811,
      "WS": 5812,
      "Write": 5813,
      "actions": 5814,
      "author": 5815,
      "bec": 5816,
      "dot": 5817,
      "dfrac": 5818,
      "iar": 5819,
      "ká»į": 5820,
      "ned": 5821,
      "pace": 5822,
      "pie": 5823,
      "rates": 5824,
      "sim": 5825,
      "tor": 5826,
      "vals": 5827,
      "yam": 5828,
      "ylog": 5829,
      "Ñĸ": 5830,
      "áĪ": 5831,
      "Ġrow": 5832,
      "ģĦ": 5833,
      "Ġtru": 5834,
      "inct": 5835,
      "inois": 5836,
      "hent": 5837,
      "onometric": 5838,
      "atan": 5839,
      "Ġsou": 5840,
      "Ġsus": 5841,
      "Ġspl": 5842,
      "enkins": 5843,
      "itals": 5844,
      "Ġow": 5845,
      "Ġpair": 5846,
      "Ġpython": 5847,
      "Ġfirm": 5848,
      "Ġfuel": 5849,
      "Ġanimal": 5850,
      "Ġbill": 5851,
      "Ġborn": 5852,
      "Ġbrain": 5853,
      "Ġmac": 5854,
      "Ġmiddle": 5855,
      "Ġmmol": 5856,
      "ctors": 5857,
      "stream": 5858,
      "Ġhu": 5859,
      "Ġhit": 5860,
      "Ġhabit": 5861,
      "ĠSun": 5862,
      "ĠSpe": 5863,
      "ĠSpr": 5864,
      "rost": 5865,
      "rodu": 5866,
      "eters": 5867,
      "Ġreplace": 5868,
      "Ġreasons": 5869,
      "Ġrefraction": 5870,
      "ĠTO": 5871,
      "Ġeat": 5872,
      "racha": 5873,
      "ĠCorn": 5874,
      "ĠCrut": 5875,
      "utations": 5876,
      "Ġgall": 5877,
      "ĠIPO": 5878,
      "igan": 5879,
      "amm": 5880,
      "amples": 5881,
      "under": 5882,
      "unities": 5883,
      "ĠPut": 5884,
      "ĠPage": 5885,
      "ĠPie": 5886,
      "ĠMain": 5887,
      "âĢĶ": 5888,
      "idents": 5889,
      "eltic": 5890,
      "ĠWind": 5891,
      "ĠWrit": 5892,
      "ĠWalnut": 5893,
      "rian": 5894,
      "riracha": 5895,
      "ĠGlobal": 5896,
      "ĠGolden": 5897,
      "ĠFour": 5898,
      "ĠDen": 5899,
      "ĠDocument": 5900,
      "Ġcontext": 5901,
      "Ġconclus": 5902,
      "Ġvill": 5903,
      "ĠNone": 5904,
      "ĠLew": 5905,
      "lops": 5906,
      "Ġsea": 5907,
      "à¶«": 5908,
      "Ġexchange": 5909,
      "Ġusage": 5910,
      "anta": 5911,
      "Ġkids": 5912,
      "Ġrh": 5913,
      "ivated": 5914,
      "Ġcho": 5915,
      "endar": 5916,
      "Ġ34": 5917,
      "ĠUK": 5918,
      "Ġshape": 5919,
      "áº¯": 5920,
      "Ġ49": 5921,
      "Ġplans": 5922,
      "Ġleave": 5923,
      "inder": 5924,
      "Ġabsol": 5925,
      "apric": 5926,
      "formance": 5927,
      "ĠChar": 5928,
      "opia": 5929,
      "ĠVol": 5930,
      "Ġserve": 5931,
      "ĠAndroid": 5932,
      "Ġworkers": 5933,
      "120": 5934,
      "Ġarc": 5935,
      "reating": 5936,
      "rams": 5937,
      "Ġscore": 5938,
      "à©ĭ": 5939,
      "Ġtravel": 5940,
      "Ġspan": 5941,
      "Ġspir": 5942,
      "onsulting": 5943,
      "Ġ2003": 5944,
      "Ġmathemat": 5945,
      "Ġspecim": 5946,
      "Ġspecified": 5947,
      "awá»įn": 5948,
      "Ġgoes": 5949,
      "ĠExper": 5950,
      "ĠArch": 5951,
      "ĠAlgorithm": 5952,
      "cience": 5953,
      "Ġphone": 5954,
      "Ġrecurs": 5955,
      "2015": 5956,
      "Ġ______": 5957,
      "Ġ<-": 5958,
      "ĠQuant": 5959,
      "Ġdiet": 5960,
      "Ġcurve": 5961,
      "Ġà°µ": 5962,
      "Ġà®ª": 5963,
      "Ġminimum": 5964,
      "ĠÃ©": 5965,
      "ĠÃ¬": 5966,
      "ponent": 5967,
      "ĠOrth": 5968,
      "ĠOrgan": 5969,
      "Ġshell": 5970,
      "Ġ1996": 5971,
      "Ġreflection": 5972,
      "ottom": 5973,
      "Ġreading": 5974,
      "Ġexperi": 5975,
      "uffins": 5976,
      "adel": 5977,
      "ANCE": 5978,
      "Ġreturns": 5979,
      "Ġspeak": 5980,
      "Ġmeasures": 5981,
      "nuts": 5982,
      "Ġcosts": 5983,
      "ĠCommunity": 5984,
      "ĠMarkov": 5985,
      "Ġrepresented": 5986,
      "extract": 5987,
      "Ġpresentation": 5988,
      "Ġpurpose": 5989,
      "Ġtechnical": 5990,
      "Ð¾Ð»": 5991,
      "Ġdetermined": 5992,
      "Ġcareer": 5993,
      "Ġplanet": 5994,
      "Ġtyping": 5995,
      "0000000": 5996,
      "ographic": 5997,
      "Ġwarheads": 5998,
      "Ġfourth": 5999,
      "áº¿t": 6000,
      "arvest": 6001,
      "AME": 6002,
      "Ġcircuit": 6003,
      "Ġerr": 6004,
      "ounced": 6005,
      "sych": 6006,
      "ursday": 6007,
      "Ġrequirements": 6008,
      "servation": 6009,
      "Ġinvestment": 6010,
      "Ġmissiles": 6011,
      "Ġdiagonal": 6012,
      "Ġscientific": 6013,
      "ĠAssoci": 6014,
      "ĠEnvironment": 6015,
      "Ġcells": 6016,
      "Ġpreviously": 6017,
      "Ġdestroyers": 6018,
      "ĠPaul": 6019,
      "reciation": 6020,
      "Ġsilico": 6021,
      "Ġhoriz": 6022,
      "incip": 6023,
      "já»įba": 6024,
      "Ġratio": 6025,
      "ĠAdvertising": 6026,
      "Ġpiece": 6027,
      "opoly": 6028,
      ")^{(": 6029,
      "otyping": 6030,
      "Ġmaximum": 6031,
      "badge": 6032,
      "ĠPresident": 6033,
      "ypothes": 6034,
      "ĠPhysics": 6035,
      "1440000000": 6036,
      "Ġdamage": 6037,
      "ategories": 6038,
      "Ġdalam": 6039,
      "ĠNicholas": 6040,
      "becue": 6041,
      "ĠLewis": 6042,
      "Ġabsolute": 6043,
      "800": 6044,
      "97": 6045,
      "After": 6046,
      "Fig": 6047,
      "HS": 6048,
      "MI": 6049,
      "PLE": 6050,
      "Val": 6051,
      "bit": 6052,
      "big": 6053,
      "bash": 6054,
      "block": 6055,
      "baked": 6056,
      "card": 6057,
      "eper": 6058,
      "fe": 6059,
      "gun": 6060,
      "hing": 6061,
      "house": 6062,
      "ivery": 6063,
      "je": 6064,
      "jp": 6065,
      "just": 6066,
      "ko": 6067,
      "lines": 6068,
      "lims": 6069,
      "mor": 6070,
      "oph": 6071,
      "pite": 6072,
      "pdf": 6073,
      "rative": 6074,
      "sa": 6075,
      "tw": 6076,
      "twell": 6077,
      "transform": 6078,
      "trim": 6079,
      "ued": 6080,
      "yd": 6081,
      "you": 6082,
      "Ã¼": 6083,
      "Äĥ": 6084,
      "ÅŁ": 6085,
      "ÏĤ": 6086,
      "ä¸": 6087,
      "Ġ%": 6088,
      "Ġ;": 6089,
      "ģu": 6090,
      "ľâĶĢâĶĢ": 6091,
      "Ġtut": 6092,
      "Ġtab": 6093,
      "Ġaud": 6094,
      "onometry": 6095,
      "Ġsav": 6096,
      "Ġsound": 6097,
      "Ġsources": 6098,
      "orb": 6099,
      "Ġcore": 6100,
      "Ġcert": 6101,
      "Ġcredit": 6102,
      "aled": 6103,
      "Ġpun": 6104,
      "Ġpairs": 6105,
      "Ġpounds": 6106,
      "Ġfat": 6107,
      "Ġfederal": 6108,
      "Ġanh": 6109,
      "Ġanaly": 6110,
      "Ġanswers": 6111,
      "ingu": 6112,
      "icies": 6113,
      "icago": 6114,
      "Ġmap": 6115,
      "Ġmental": 6116,
      "lear": 6117,
      "leased": 6118,
      "Ġindex": 6119,
      "Ġinverse": 6120,
      "Ġtown": 6121,
      "omic": 6122,
      "omain": 6123,
      "step": 6124,
      "ĠSan": 6125,
      "Ġrect": 6126,
      "Ġreached": 6127,
      "vere": 6128,
      "ĠTw": 6129,
      "ĠTre": 6130,
      "ĠToday": 6131,
      "imer": 6132,
      "celer": 6133,
      "uses": 6134,
      "chan": 6135,
      "char": 6136,
      "chops": 6137,
      "Ġgbe": 6138,
      "igil": 6139,
      "ĠPal": 6140,
      "ĠPri": 6141,
      "ĠPower": 6142,
      "ĠParent": 6143,
      "ĠPython": 6144,
      "ĠMary": 6145,
      "ĠBill": 6146,
      "ĠBack": 6147,
      "ĠRat": 6148,
      "ĠRad": 6149,
      "ĠRog": 6150,
      "ĠHouse": 6151,
      "eld": 6152,
      "Ġstop": 6153,
      "ĠES": 6154,
      "ĠEnt": 6155,
      "ĠEnh": 6156,
      "ests": 6157,
      "ĠDon": 6158,
      "](/": 6159,
      "Ġconver": 6160,
      "Ġdeb": 6161,
      "Ġdeep": 6162,
      "Ġ[-": 6163,
      "acent": 6164,
      "à¨Ĺ": 6165,
      "Ġselected": 6166,
      "ĠOat": 6167,
      "rome": 6168,
      "Ġkill": 6169,
      "Ġrou": 6170,
      "Ġrout": 6171,
      "employ": 6172,
      "Ġheart": 6173,
      "à®¨": 6174,
      "à°ª": 6175,
      "Ġ300": 6176,
      "ĠJer": 6177,
      "ĠJack": 6178,
      "outhern": 6179,
      "Ġplug": 6180,
      "Ġleaves": 6181,
      "Ġadults": 6182,
      "izations": 6183,
      "phas": 6184,
      "phia": 6185,
      "Ġimpl": 6186,
      "ĠRead": 6187,
      "Ġ54": 6188,
      "Ġ55": 6189,
      "apes": 6190,
      "Ġmechan": 6191,
      "Ġjoy": 6192,
      "ĠChops": 6193,
      "Ġclust": 6194,
      "Ġclient": 6195,
      "Ġenjoy": 6196,
      "Ġà¨µ": 6197,
      "Ġà¨ĩ": 6198,
      "ĠVe": 6199,
      "ĠĠĠĠĠĠĠĠĠĠĠĠĠĠĠ": 6200,
      "Ġbutton": 6201,
      "ructions": 6202,
      "Ġotherwise": 6203,
      "Ġapples": 6204,
      "áº¹áº¹": 6205,
      "à©ģ": 6206,
      "à©į": 6207,
      "eyer": 6208,
      "Ġspok": 6209,
      "rown": 6210,
      "Ġspecifically": 6211,
      "Ġprepar": 6212,
      "ĠComput": 6213,
      "ĠExplain": 6214,
      "Ġanyone": 6215,
      "Ġdifferences": 6216,
      "à±Ĩ": 6217,
      "argets": 6218,
      "à¤¤": 6219,
      "à¤ķ": 6220,
      "uality": 6221,
      "ĠAny": 6222,
      "Ã¡Ãł": 6223,
      "ĠHallowe": 6224,
      "2018": 6225,
      "ĠSyrup": 6226,
      "Ġinterview": 6227,
      "Ġmonitor": 6228,
      "Ġindic": 6229,
      "ashington": 6230,
      "Ġclasses": 6231,
      "Ġacqu": 6232,
      "Ġextreme": 6233,
      "anna": 6234,
      "Ġedge": 6235,
      "Ġeditor": 6236,
      "Ġfacts": 6237,
      "2003": 6238,
      "2007": 6239,
      "Ġcommonly": 6240,
      "atsim": 6241,
      "Ġflag": 6242,
      "script": 6243,
      "ITH": 6244,
      "Ġlargely": 6245,
      "Ġallowed": 6246,
      "Ġexplicit": 6247,
      "Ġdiscovered": 6248,
      "Ġinsurance": 6249,
      "Ġcontaining": 6250,
      "Ġmodule": 6251,
      "ðĿĳĻ": 6252,
      "Ġfaces": 6253,
      "ĠContinu": 6254,
      "Ġstandards": 6255,
      "Ġdiseases": 6256,
      "byte": 6257,
      "ĠSheet": 6258,
      "ĠParty": 6259,
      "Ġcontinued": 6260,
      "Ġtreatment": 6261,
      "Ġbiological": 6262,
      "syrup": 6263,
      "Ġheaders": 6264,
      "ibraries": 6265,
      "ĠMedia": 6266,
      "Ġorganization": 6267,
      "otato": 6268,
      "ĠGovern": 6269,
      "umpkin": 6270,
      "ĠCorporation": 6271,
      "Ġdevice": 6272,
      "à¨²à¨®": 6273,
      "Ġmajority": 6274,
      "Ġconnector": 6275,
      "Class": 6276,
      "Ġdescribe": 6277,
      "Unit": 6278,
      "Ġsafe": 6279,
      "generation": 6280,
      "Ġengineers": 6281,
      "Ġinternational": 6282,
      "Ġofficials": 6283,
      "Ġdiscussion": 6284,
      "ĠIdent": 6285,
      "Ġterrit": 6286,
      "Ġrepeated": 6287,
      "color": 6288,
      "ĠStandards": 6289,
      "Ġopportunity": 6290,
      "Ġslope": 6291,
      "Ġinnov": 6292,
      "Roasted": 6293,
      "antusiidae": 6294,
      "ĠPopular": 6295,
      "Ġatmosphere": 6296,
      "ĠFlorida": 6297,
      "Ġbirth": 6298,
      "ĠAriÃ¨ge": 6299,
      "ĠPhiladel": 6300,
      "Halloween": 6301,
      "itecture": 6302,
      "rehensive": 6303,
      "ĠIBPS": 6304,
      "yaml": 6305,
      "ylogen": 6306,
      "ĠPhiladelphia": 6307,
      "></": 6308,
      "Book": 6309,
      "Des": 6310,
      "David": 6311,
      "En": 6312,
      "FS": 6313,
      "GI": 6314,
      "Genome": 6315,
      "IZ": 6316,
      "Jo": 6317,
      "Le": 6318,
      "My": 6319,
      "Media": 6320,
      "PA": 6321,
      "Part": 6322,
      "Rule": 6323,
      "Sero": 6324,
      "Te": 6325,
      "Use": 6326,
      "VE": 6327,
      "\\$": 6328,
      "\\}\\": 6329,
      "\\{{\\": 6330,
      "];": 6331,
      "brid": 6332,
      "cial": 6333,
      "case": 6334,
      "da": 6335,
      "dent": 6336,
      "dpt": 6337,
      "ditions": 6338,
      "gments": 6339,
      "google": 6340,
      "har": 6341,
      "ij": 6342,
      "iÃ³n": 6343,
      "ney": 6344,
      "pox": 6345,
      "rin": 6346,
      "rition": 6347,
      "site": 6348,
      "source": 6349,
      "turkey": 6350,
      "vy": 6351,
      "vity": 6352,
      "west": 6353,
      "yond": 6354,
      "ybrid": 6355,
      "Ð·": 6356,
      "Ø¨": 6357,
      "Ġile": 6358,
      "Ġtrou": 6359,
      "inations": 6360,
      "inally": 6361,
      "onia": 6362,
      "Ġsun": 6363,
      "Ġsaw": 6364,
      "iti": 6365,
      "anh": 6366,
      "ĠcÃ¡": 6367,
      "isson": 6368,
      "Ġwrong": 6369,
      "Ġpy": 6370,
      "Ġfaster": 6371,
      "Ġfresh": 6372,
      "Ġban": 6373,
      "Ġboy": 6374,
      "ĠbÃ¡n": 6375,
      "icip": 6376,
      "Ġmm": 6377,
      "Ġmother": 6378,
      "leep": 6379,
      "leines": 6380,
      "asion": 6381,
      "omb": 6382,
      "entially": 6383,
      "ĠAcade": 6384,
      "ste": 6385,
      "ĠSociety": 6386,
      "Ġnamed": 6387,
      "Ġloss": 6388,
      "rapper": 6389,
      "oll": 6390,
      "ithms": 6391,
      "ĠIr": 6392,
      "oted": 6393,
      "aman": 6394,
      "amental": 6395,
      "Ġbeaut": 6396,
      "Ġbeyond": 6397,
      "ĠPic": 6398,
      "ĠPPC": 6399,
      "ĠMas": 6400,
      "ĠMad": 6401,
      "ĠBey": 6402,
      "ĠRa": 6403,
      "ĠHA": 6404,
      "ĠHence": 6405,
      "ĠWas": 6406,
      "ĠWik": 6407,
      "rial": 6408,
      "ĠGenom": 6409,
      "ĠGreek": 6410,
      "iform": 6411,
      "ĠEr": 6412,
      "ĠEnc": 6413,
      "ĠDif": 6414,
      "atever": 6415,
      "Ġaren": 6416,
      "Ġprofile": 6417,
      "ache": 6418,
      "Ġvict": 6419,
      "Ġvision": 6420,
      "ĠNE": 6421,
      "ĠLow": 6422,
      "Ġsector": 6423,
      "Ġexcell": 6424,
      "Ġexclude": 6425,
      "psi": 6426,
      "akukan": 6427,
      "tem": 6428,
      "allow": 6429,
      "à·ĸ": 6430,
      "arden": 6431,
      "ocal": 6432,
      "``}": 6433,
      "Ġchurch": 6434,
      "udes": 6435,
      "endure": 6436,
      "Ġshared": 6437,
      "ultaneous": 6438,
      "They": 6439,
      "Ġ42": 6440,
      "Ġ46": 6441,
      "Ġ02": 6442,
      "Ġadopt": 6443,
      "rought": 6444,
      "assets": 6445,
      "108": 6446,
      "Ġabs": 6447,
      "achment": 6448,
      "soy": 6449,
      "Ġmeadow": 6450,
      "ĠChicago": 6451,
      "Ġà¨¤": 6452,
      "Ġà¨°": 6453,
      "ĠVir": 6454,
      "ĠVanilla": 6455,
      "lla": 6456,
      "ĠĠĠĠĠĠĠĠĠĠĠĠ": 6457,
      "ruent": 6458,
      "Ġcommerc": 6459,
      "Ġcompute": 6460,
      "tools": 6461,
      "Ġscen": 6462,
      "à©Ĥ": 6463,
      "Ġtea": 6464,
      "lication": 6465,
      "eyan": 6466,
      "Ġdiff": 6467,
      "Ġà¶±": 6468,
      "Ġà¶º": 6469,
      "ibi": 6470,
      "Ġ92": 6471,
      "neum": 6472,
      "Ġprime": 6473,
      "Ġ75": 6474,
      "Ġsolid": 6475,
      "Ġray": 6476,
      "await": 6477,
      "Ġrot": 6478,
      "ternal": 6479,
      "Ġgoals": 6480,
      "ĠExcel": 6481,
      "ebabs": 6482,
      "Ġsubs": 6483,
      "1186": 6484,
      "Ġsetup": 6485,
      "Ġregulations": 6486,
      "Ġactors": 6487,
      "Ġinstit": 6488,
      "Ġ&=": 6489,
      "Ġintegers": 6490,
      "2013": 6491,
      "2016": 6492,
      "ception": 6493,
      "Ġchildhood": 6494,
      "Ġdefine": 6495,
      "Ġconstruction": 6496,
      "Ġàªª": 6497,
      "Ġemphas": 6498,
      "Ġextensive": 6499,
      "Ġà®¤": 6500,
      "ometer": 6501,
      "Ġcommunities": 6502,
      "Ġhelped": 6503,
      "Ġhighlight": 6504,
      "Ġchemical": 6505,
      "span": 6506,
      "spiced": 6507,
      "Ġdifferential": 6508,
      "Ġestimate": 6509,
      "Ġ1995": 6510,
      "Ġlesson": 6511,
      "ĠResults": 6512,
      "------------": 6513,
      "Ġapproximately": 6514,
      "ancer": 6515,
      "alker": 6516,
      "Ġallowing": 6517,
      "adeleines": 6518,
      "riday": 6519,
      "Ġsummary": 6520,
      "Ġgenomes": 6521,
      "Ġzone": 6522,
      "à´¨": 6523,
      "Ġfoods": 6524,
      "ĠCommit": 6525,
      "Ġprocessing": 6526,
      "ĠMaths": 6527,
      "ÑĥÑĥ": 6528,
      "ĠEquation": 6529,
      "Ġfacilities": 6530,
      "white": 6531,
      "Ġiniti": 6532,
      "Æ°á»Ŀ": 6533,
      "Ġbelieved": 6534,
      "ĠGraphs": 6535,
      "Ġload": 6536,
      "Ġpatients": 6537,
      "ĠGeometry": 6538,
      "ĠPoint": 6539,
      "ĠPoisson": 6540,
      "carpone": 6541,
      "Ġobjects": 6542,
      "Ġlearned": 6543,
      "ĠInterpret": 6544,
      "Ġcertainly": 6545,
      "Ġlatitude": 6546,
      "Ġswitch": 6547,
      "Ġrecently": 6548,
      "avelength": 6549,
      "Ġproducts": 6550,
      "detect": 6551,
      "oisin": 6552,
      "Ġmagn": 6553,
      "Ġrelationships": 6554,
      "ĠIllinois": 6555,
      "ĠSaint": 6556,
      "content": 6557,
      "flower": 6558,
      "Ġholiday": 6559,
      "ĠWilli": 6560,
      "Ġsynth": 6561,
      "Ġrecognize": 6562,
      "Ġseparate": 6563,
      "Finder": 6564,
      "Header": 6565,
      "ĠSequence": 6566,
      "Ġsabermetrics": 6567,
      "Ġballistic": 6568,
      "ĠEducation": 6569,
      "Ġregarding": 6570,
      "Ġcandid": 6571,
      "semantic": 6572,
      "Report": 6573,
      "Ġcelebrate": 6574,
      "Ġthousands": 6575,
      "Ġbacteria": 6576,
      "áº§u": 6577,
      "\\;\\;": 6578,
      "Ġfloor": 6579,
      "Ġhospitals": 6580,
      "ĠDivision": 6581,
      "Ġcitizens": 6582,
      "ĠICBM": 6583,
      "Ġcongruent": 6584,
      "ĠVariables": 6585,
      "ĠCruttwell": 6586,
      "Ġhorizont": 6587,
      "\")": 6588,
      ")+": 6589,
      ")]": 6590,
      ".|": 6591,
      "Ac": 6592,
      "Act": 6593,
      "DB": 6594,
      "Dec": 6595,
      "Er": 6596,
      "Lat": 6597,
      "Line": 6598,
      "LIC": 6599,
      "Ma": 6600,
      "NP": 6601,
      "System": 6602,
      "UL": 6603,
      "aper": 6604,
      "bur": 6605,
      "base": 6606,
      "body": 6607,
      "build": 6608,
      "ded": 6609,
      "fil": 6610,
      "fresh": 6611,
      "gp": 6612,
      "ki": 6613,
      "ni": 6614,
      "pan": 6615,
      "post": 6616,
      "rons": 6617,
      "spe": 6618,
      "sible": 6619,
      "tual": 6620,
      "ux": 6621,
      "ufact": 6622,
      "vin": 6623,
      "vider": 6624,
      "vinaigrette": 6625,
      "ye": 6626,
      "zy": 6627,
      "}^{": 6628,
      "ÙĪ": 6629,
      "ÙĬ": 6630,
      "Ġq": 6631,
      "Ġ~": 6632,
      "Ġà´": 6633,
      "Ġtag": 6634,
      "Ġtons": 6635,
      "Ġaer": 6636,
      "erve": 6637,
      "Ġserm": 6638,
      "Ġsale": 6639,
      "itation": 6640,
      "itage": 6641,
      "Ġcr": 6642,
      "Ġohun": 6643,
      "Ġwin": 6644,
      "alpha": 6645,
      "Ġfilled": 6646,
      "Ġbranch": 6647,
      "Ġmillim": 6648,
      "leq": 6649,
      "Ġdro": 6650,
      "Ġinch": 6651,
      "Ġthou": 6652,
      "Ġthá»": 6653,
      "ĠAuthor": 6654,
      "Ġharvest": 6655,
      "ĠSqu": 6656,
      "ĠSlo": 6657,
      "ĠSup": 6658,
      "ĠSaf": 6659,
      "ĠSEO": 6660,
      "room": 6661,
      "Ġnor": 6662,
      "Ġnine": 6663,
      "Ġreject": 6664,
      "ĠTri": 6665,
      "Ġegg": 6666,
      "Ġlost": 6667,
      "Ġlia": 6668,
      "Ġláº¹": 6669,
      "Ġisc": 6670,
      "Ġisol": 6671,
      "olina": 6672,
      "ĠCos": 6673,
      "ĠCost": 6674,
      "ĠCap": 6675,
      "ĠCeltic": 6676,
      "dec": 6677,
      "Ġ150": 6678,
      "Ġgun": 6679,
      "otions": 6680,
      "igration": 6681,
      "ĠPagan": 6682,
      "ĠMV": 6683,
      "ĠMem": 6684,
      "ĠMake": 6685,
      "ulum": 6686,
      "ĠBig": 6687,
      "ĠBest": 6688,
      "ĠBaby": 6689,
      "ĠRange": 6690,
      "ĠRib": 6691,
      "ĠRule": 6692,
      "ĠHome": 6693,
      "ĠHistor": 6694,
      "ĠHiggs": 6695,
      "eli": 6696,
      "section": 6697,
      "umes": 6698,
      "ĠFree": 6699,
      "ĠFood": 6700,
      "ĠFOR": 6701,
      "Ġstri": 6702,
      "Ġstored": 6703,
      "Ġstatus": 6704,
      "ĠDatabase": 6705,
      "ersion": 6706,
      "Ġprove": 6707,
      "Ġconcur": 6708,
      "Ġdeveloper": 6709,
      "abil": 6710,
      "abet": 6711,
      "ĠTheir": 6712,
      "Ġ['": 6713,
      "Ġvac": 6714,
      "Ġvary": 6715,
      "Ġvoice": 6716,
      "ĠLi": 6717,
      "ĠLo": 6718,
      "ĠLong": 6719,
      "ĠLamb": 6720,
      "mented": 6721,
      "Ġordered": 6722,
      "Ġcomments": 6723,
      "Ġsec": 6724,
      "pears": 6725,
      "Ġexem": 6726,
      "tered": 6727,
      "ĠON": 6728,
      "ĠOper": 6729,
      "Ġhear": 6730,
      "à®ļ": 6731,
      "Ġcancer": 6732,
      "à°·": 6733,
      "$$,": 6734,
      "Ġnoted": 6735,
      "Then": 6736,
      "ĠInf": 6737,
      "ĠString": 6738,
      "Ġads": 6739,
      "enshot": 6740,
      "Ġimpos": 6741,
      "acks": 6742,
      "ĠKon": 6743,
      "ipment": 6744,
      "Ġ57": 6745,
      "Ġresistance": 6746,
      "ousse": 6747,
      "ermine": 6748,
      "ĠVinaigrette": 6749,
      "à¯Ĥ": 6750,
      "Ġcompar": 6751,
      "Ġ$(": 6752,
      "Ġ655": 6753,
      "Ġdisapp": 6754,
      "pecan": 6755,
      "Ġappears": 6756,
      "riculum": 6757,
      "Ġyearly": 6758,
      "Inter": 6759,
      "Ġ2001": 6760,
      "Ġ2002": 6761,
      "Ġtrong": 6762,
      "Ġà¶Ń": 6763,
      "rowing": 6764,
      "ibilities": 6765,
      "ecan": 6766,
      "ugar": 6767,
      "Ð°Ð³": 6768,
      "ribunal": 6769,
      "project": 6770,
      "Ġfolder": 6771,
      "Ġpeak": 6772,
      "ĠAlanya": 6773,
      "texttt": 6774,
      "ologies": 6775,
      "Ãłn": 6776,
      "Ġcoil": 6777,
      "engal": 6778,
      "rency": 6779,
      "Ġregist": 6780,
      "Ġrecy": 6781,
      "ĠDegus": 6782,
      "Ġfees": 6783,
      "ship": 6784,
      "Ġdetection": 6785,
      "Ġinterface": 6786,
      "theta": 6787,
      "Ġexpression": 6788,
      "ĠClimate": 6789,
      "asks": 6790,
      "Ġruns": 6791,
      "Ġdecision": 6792,
      "Ġdecisions": 6793,
      "Ġearnings": 6794,
      "Ġà°®": 6795,
      "ĠSecond": 6796,
      "Ġtried": 6797,
      "ĠAsgard": 6798,
      "Ġàª¸": 6799,
      "Ġà®µ": 6800,
      "Ġà®ķ": 6801,
      "Ġcalendar": 6802,
      "Ġlocations": 6803,
      "2009": 6804,
      "Ġsmallest": 6805,
      "ĠTeas": 6806,
      "ĠTechn": 6807,
      "Ġintrodu": 6808,
      "figure": 6809,
      "ĠHead": 6810,
      "Ġcompleted": 6811,
      "Ġvaccination": 6812,
      "ÂłÂłÂłÂłÂłÂłÂłÂłÂł": 6813,
      "oyal": 6814,
      "Ġflute": 6815,
      "ifying": 6816,
      "Ġ},": 6817,
      "While": 6818,
      "Ġtempl": 6819,
      "Ġmonthly": 6820,
      "gorithms": 6821,
      "Ġtriangles": 6822,
      "Ġá»įhun": 6823,
      "Ġdirector": 6824,
      "à¥ĭ": 6825,
      "Ġgenes": 6826,
      "Ġincreased": 6827,
      "Ġ``=`": 6828,
      "ĠOnly": 6829,
      "Ġstudying": 6830,
      "àª¾àªĤ": 6831,
      "ĠXantusiidae": 6832,
      "Ġsaying": 6833,
      "Ä±n": 6834,
      "Ġchecks": 6835,
      "ĠEarly": 6836,
      "Ġmainly": 6837,
      "Ġevents": 6838,
      "Ġeffects": 6839,
      "mitted": 6840,
      "Ġhumans": 6841,
      "Ġcloser": 6842,
      "Ġtemperatures": 6843,
      "Ġdependencies": 6844,
      "Ġanti": 6845,
      "ĠPartners": 6846,
      "Also": 6847,
      "Ġdelivery": 6848,
      "Ġdrylands": 6849,
      "Ġcontinuous": 6850,
      "Ġannounced": 6851,
      "Ġboard": 6852,
      "Ġmoves": 6853,
      "Ġauto": 6854,
      "ĠAbout": 6855,
      "Ġenvironmental": 6856,
      "Ġcorrectly": 6857,
      "Ġfamiliar": 6858,
      "Ġelectric": 6859,
      "boro": 6860,
      "ĠOutcome": 6861,
      "ĠImm": 6862,
      "intercept": 6863,
      "Ġleaders": 6864,
      "Ãªu": 6865,
      "Ġbrother": 6866,
      "Ġnearly": 6867,
      "Ġartist": 6868,
      "Ġcomplicated": 6869,
      "ĠBrown": 6870,
      "ĠBrowne": 6871,
      "Ġalmoh": 6872,
      "Ġurl": 6873,
      "ĠMean": 6874,
      "Ġhunting": 6875,
      "ĠArabic": 6876,
      "áº¡i": 6877,
      "ictionary": 6878,
      "Ġpurchase": 6879,
      "uracy": 6880,
      "Ġeconomic": 6881,
      "Ġcaptivity": 6882,
      "Ġconcepts": 6883,
      "Ġalignment": 6884,
      "ĠIII": 6885,
      "ĠStandard": 6886,
      "Ġalgebraic": 6887,
      "ĠObject": 6888,
      "Ġmultiplying": 6889,
      "squared": 6890,
      "Ġcompetitive": 6891,
      "Ġopportunities": 6892,
      "ĠCookies": 6893,
      "ĠEducational": 6894,
      "ĠUsage": 6895,
      "Ġtrends": 6896,
      "Ġaxis": 6897,
      "ĠCampaigns": 6898,
      "ĠMichigan": 6899,
      "Ġreprodu": 6900,
      "ĠBowman": 6901,
      "áºŃp": 6902,
      "Ġpatterns": 6903,
      "Ġdetailed": 6904,
      "ĠÃłwá»įn": 6905,
      "ĠService": 6906,
      "ĠRichard": 6907,
      "ĠRobin": 6908,
      "Ġautomatically": 6909,
      "Ġneighbor": 6910,
      "cluding": 6911,
      "uzzle": 6912,
      "Ġletsencrypt": 6913,
      "Ġstraight": 6914,
      "Ġdiversity": 6915,
      "ĠIreland": 6916,
      "JECT": 6917,
      "ĠCollege": 6918,
      "Ġsplit": 6919,
      "Ġhuge": 6920,
      "Ġmathematical": 6921,
      "Ġrecursive": 6922,
      "ĠRogers": 6923,
      "atsimphp": 6924,
      "MediaPost": 6925,
      "Ġcommercial": 6926,
      "ĠRibs": 6927,
      "!)": 6928,
      "')": 6929,
      "'.": 6930,
      "(``": 6931,
      ".||": 6932,
      "1000": 6933,
      "62": 6934,
      "73": 6935,
      "Ab": 6936,
      "April": 6937,
      "BS": 6938,
      "Bl": 6939,
      "Bay": 6940,
      "Che": 6941,
      "Car": 6942,
      "Database": 6943,
      "Each": 6944,
      "First": 6945,
      "Gu": 6946,
      "HP": 6947,
      "HER": 6948,
      "IES": 6949,
      "LI": 6950,
      "MC": 6951,
      "NAME": 6952,
      "Orig": 6953,
      "Per": 6954,
      "RL": 6955,
      "Set": 6956,
      "SON": 6957,
      "Script": 6958,
      "Time": 6959,
      "Work": 6960,
      "`:": 6961,
      "bun": 6962,
      "dig": 6963,
      "ders": 6964,
      "div": 6965,
      "ees": 6966,
      "fa": 6967,
      "friend": 6968,
      "game": 6969,
      "granola": 6970,
      "ien": 6971,
      "ira": 6972,
      "iation": 6973,
      "most": 6974,
      "nel": 6975,
      "nos": 6976,
      "oint": 6977,
      "ped": 6978,
      "random": 6979,
      "size": 6980,
      "trans": 6981,
      "uan": 6982,
      "wood": 6983,
      "when": 6984,
      "yml": 6985,
      "¦Ł": 6986,
      "Î¹": 6987,
      "Ùħ": 6988,
      "âģĦ": 6989,
      "â¦Ł": 6990,
      "Ġip": 6991,
      "Ġtim": 6992,
      "inite": 6993,
      "ona": 6994,
      "atible": 6995,
      "Ġsan": 6996,
      "Ġsá»ĳ": 6997,
      "Ġsenior": 6998,
      "orge": 6999,
      "eno": 7000,
      "iting": 7001,
      "itudes": 7002,
      "Ġce": 7003,
      "Ġcut": 7004,
      "Ġcounter": 7005,
      "isa": 7006,
      "isf": 7007,
      "Ġwaves": 7008,
      "almon": 7009,
      "alities": 7010,
      "Ġpil": 7011,
      "Ġpneum": 7012,
      "Ġfif": 7013,
      "Ġfixed": 7014,
      "Ġfoot": 7015,
      "Ġbones": 7016,
      "iche": 7017,
      "ouble": 7018,
      "Ġmys": 7019,
      "lections": 7020,
      "Ġdoc": 7021,
      "Ġinh": 7022,
      "Ġtox": 7023,
      "enth": 7024,
      "Ġthread": 7025,
      "ĠAC": 7026,
      "struct": 7027,
      "Ġhop": 7028,
      "ĠSw": 7029,
      "ĠSine": 7030,
      "ĠSoy": 7031,
      "rogen": 7032,
      "ether": 7033,
      "ĠType": 7034,
      "ĠTrain": 7035,
      "Ġeeyan": 7036,
      "Ġlibrary": 7037,
      "ĠCRE": 7038,
      "dev": 7039,
      "Ġ101": 7040,
      "cean": 7041,
      "usage": 7042,
      "chart": 7043,
      "Ġgr": 7044,
      "Ġgar": 7045,
      "Ġgrant": 7046,
      "otes": 7047,
      "amily": 7048,
      "amazon": 7049,
      "Ġye": 7050,
      "Ġyards": 7051,
      "Ġforces": 7052,
      "ĠPR": 7053,
      "ĠPy": 7054,
      "ĠPay": 7055,
      "ĠMA": 7056,
      "ĠMart": 7057,
      "ĠMAT": 7058,
      "ulf": 7059,
      "ĠBra": 7060,
      "ĠBased": 7061,
      "ĠBengal": 7062,
      "aya": 7063,
      "ĠRight": 7064,
      "ĠHom": 7065,
      "idth": 7066,
      "ĠWings": 7067,
      "ĠWatch": 7068,
      "sey": 7069,
      "ĠGames": 7070,
      "ĠGitHub": 7071,
      "umin": 7072,
      "ĠFPC": 7073,
      "ĠFriday": 7074,
      "Ġalone": 7075,
      "Ġalgorithms": 7076,
      "ĠDel": 7077,
      "ĠDist": 7078,
      "ĠDuring": 7079,
      "ĠDoes": 7080,
      "ĠDownload": 7081,
      "anda": 7082,
      "Ġprot": 7083,
      "Ġconcent": 7084,
      "Ġconne": 7085,
      "Ġdeer": 7086,
      "abled": 7087,
      "abilities": 7088,
      "acing": 7089,
      "Ġvital": 7090,
      "Ġwhatever": 7091,
      "ĠName": 7092,
      "ĠLiter": 7093,
      "Ġsecret": 7094,
      "alled": 7095,
      "ains": 7096,
      "osen": 7097,
      "osition": 7098,
      "Ġkil": 7099,
      "Ġrise": 7100,
      "empty": 7101,
      "commerce": 7102,
      "orted": 7103,
      "Ġcharge": 7104,
      "à®£": 7105,
      "oston": 7106,
      "à°Ĺ": 7107,
      "Ġ33": 7108,
      "Ġunemploy": 7109,
      "plitude": 7110,
      "plugin": 7111,
      "berries": 7112,
      "ogether": 7113,
      "ansion": 7114,
      "àª¥": 7115,
      "Ġleader": 7116,
      "angle": 7117,
      "Ġ08": 7118,
      "ĠStre": 7119,
      "elling": 7120,
      "asses": 7121,
      "109": 7122,
      "ĠThursday": 7123,
      "ĠKen": 7124,
      "sole": 7125,
      "dule": 7126,
      "Ġdoor": 7127,
      "Ġresol": 7128,
      "athan": 7129,
      "athai": 7130,
      "Ġcontribute": 7131,
      "Ġenh": 7132,
      "Ġenv": 7133,
      "Ġà¨®": 7134,
      "ĠYor": 7135,
      "ĠYear": 7136,
      "Ġbutter": 7137,
      "Ġcompared": 7138,
      "Ġcomposed": 7139,
      "Ġmanufact": 7140,
      "Ġspot": 7141,
      "Ġà¶ĳ": 7142,
      "create": 7143,
      "Ġmaa": 7144,
      "Ġmaps": 7145,
      "velocity": 7146,
      "Ġrabb": 7147,
      "Ġroles": 7148,
      "Ġanything": 7149,
      "Ġmaybe": 7150,
      "}}{{\\": 7151,
      "ĠArithmetic": 7152,
      "ĠProject": 7153,
      "****": 7154,
      "Ġgets": 7155,
      "ĠÐ´": 7156,
      "Ġsubst": 7157,
      "Ġoffers": 7158,
      "116": 7159,
      "Ġactive": 7160,
      "Ġactual": 7161,
      "orney": 7162,
      "2014": 7163,
      "Ġintervals": 7164,
      "axis": 7165,
      "Ġexpenses": 7166,
      "Ġlongitude": 7167,
      "ĠYoung": 7168,
      "Ġdefense": 7169,
      "Ġproducing": 7170,
      "Ġconstitution": 7171,
      "Ġdecide": 7172,
      "Ġdecided": 7173,
      "Ġcurriculum": 7174,
      "Ġparticles": 7175,
      "Ġcreation": 7176,
      "Ġà°ª": 7177,
      "Ġtested": 7178,
      "ĠConvert": 7179,
      "ĠConvention": 7180,
      "ticles": 7181,
      "Ġremov": 7182,
      "ĠàªĽ": 7183,
      "Ġextended": 7184,
      "Ġcalling": 7185,
      "Ġà®®": 7186,
      "Ġà®İ": 7187,
      "Ġpolicies": 7188,
      "ĠÃĹ": 7189,
      "Ġgreatest": 7190,
      "ĠShort": 7191,
      "ĠShould": 7192,
      "ĠOrder": 7193,
      "}$$.": 7194,
      "matrix": 7195,
      "Ġlooked": 7196,
      "Ġattention": 7197,
      "Ġtransport": 7198,
      "Ġcarn": 7199,
      "Ġapproaches": 7200,
      "Ġ-->": 7201,
      "Ġexperim": 7202,
      "Ġinterested": 7203,
      "rators": 7204,
      "Ġwriter": 7205,
      "rawberry": 7206,
      "Ġsynt": 7207,
      "Ġsignal": 7208,
      "ĠAppro": 7209,
      "Ġmetres": 7210,
      "Ġmarketing": 7211,
      "salm": 7212,
      "Ġlimits": 7213,
      "Ġkeys": 7214,
      "ributing": 7215,
      "Ġoptim": 7216,
      "Ġoptional": 7217,
      "Ġgrown": 7218,
      "Ġkegi": 7219,
      "Ġfewer": 7220,
      "Ð¸Ð½": 7221,
      "Ġinvolve": 7222,
      "Ġinvolves": 7223,
      "force": 7224,
      "ondon": 7225,
      "ĠIsl": 7226,
      "Ġidentified": 7227,
      "Ġcapable": 7228,
      "Ġcapacity": 7229,
      "Ġtaxes": 7230,
      "âĶĤ": 7231,
      "elsius": 7232,
      "Ġremainder": 7233,
      "Ġgrade": 7234,
      "Ġgravity": 7235,
      "Ġcompletely": 7236,
      "Ġdepends": 7237,
      "Ġcircular": 7238,
      "ĠBlue": 7239,
      "ficulty": 7240,
      "ĠUSA": 7241,
      "ĠRegional": 7242,
      "Ġadvanced": 7243,
      "Ġwinding": 7244,
      "Ġwindow": 7245,
      "Ġsuggested": 7246,
      "Ġcustomers": 7247,
      "ĠCentral": 7248,
      "Ã¬nh": 7249,
      "Sept": 7250,
      "Ġdrive": 7251,
      "Ġleading": 7252,
      "Ġlinks": 7253,
      "Ġbroad": 7254,
      "Ġdecline": 7255,
      "Ġcreative": 7256,
      "Ġindependence": 7257,
      "guy": 7258,
      "Ġengineer": 7259,
      "ĠInternational": 7260,
      "Ġcelebr": 7261,
      "ĠMajor": 7262,
      "RACTION": 7263,
      "Ġdigits": 7264,
      "Ġresponsible": 7265,
      "relation": 7266,
      "ĠPaid": 7267,
      "ĠKeyboard": 7268,
      "Ġclearly": 7269,
      "sequently": 7270,
      "display": 7271,
      "erko": 7272,
      "Ġculture": 7273,
      "ĠALCM": 7274,
      "Ġnumerator": 7275,
      "ĠHello": 7276,
      "Ð°Ð»Ñĭ": 7277,
      "Ġcircumcenter": 7278,
      "Ġadjacent": 7279,
      "Ġbalance": 7280,
      "layout": 7281,
      "Ġalternative": 7282,
      "cookies": 7283,
      "++)": 7284,
      "ĠFigure": 7285,
      "Ġdiscover": 7286,
      "Ġagreement": 7287,
      "snipp": 7288,
      "ĠCurrent": 7289,
      "ĠBernd": 7290,
      "Ġphysicians": 7291,
      "ĠBetween": 7292,
      "Ġquickly": 7293,
      "Ġslightly": 7294,
      "Directions": 7295,
      "ĠRitual": 7296,
      "Ġparallel": 7297,
      "Ġresearchers": 7298,
      "Ġfavorite": 7299,
      "ĠFriedberg": 7300,
      "ĠIndonesia": 7301,
      "Ġearthquake": 7302,
      "incipal": 7303,
      "ĠEnhanced": 7304,
      "ĠCommittee": 7305,
      "Ġiscsi": 7306,
      "ĠTrainer": 7307,
      "Ġrabbit": 7308,
      "!$": 7309,
      "*}": 7310,
      "2000": 7311,
      "82": 7312,
      "AG": 7313,
      "CN": 7314,
      "Disc": 7315,
      "FL": 7316,
      "FT": 7317,
      "HD": 7318,
      "LIP": 7319,
      "LAB": 7320,
      "Laravel": 7321,
      "Mar": 7322,
      "NATS": 7323,
      "Ob": 7324,
      "Out": 7325,
      "Rock": 7326,
      "Random": 7327,
      "SN": 7328,
      "Since": 7329,
      "Test": 7330,
      "Using": 7331,
      "Where": 7332,
      "\\}$$": 7333,
      "bd": 7334,
      "bas": 7335,
      "blob": 7336,
      "cf": 7337,
      "care": 7338,
      "dl": 7339,
      "eared": 7340,
      "first": 7341,
      "gl": 7342,
      "hots": 7343,
      "ji": 7344,
      "kl": 7345,
      "kit": 7346,
      "king": 7347,
      "llo": 7348,
      "met": 7349,
      "opping": 7350,
      "px": 7351,
      "present": 7352,
      "qquad": 7353,
      "rub": 7354,
      "rÃŃ": 7355,
      "yes": 7356,
      "yclo": 7357,
      "zure": 7358,
      "}+": 7359,
      "Ã¦": 7360,
      "Ã¶": 7361,
      "Ïĥ": 7362,
      "Ñĩ": 7363,
      "Ġ00": 7364,
      "Ġ##": 7365,
      "Ġupp": 7366,
      "ĠÑģ": 7367,
      "Ġtun": 7368,
      "Ġtub": 7369,
      "Ġtour": 7370,
      "inh": 7371,
      "Ġaf": 7372,
      "Ġapart": 7373,
      "heit": 7374,
      "hered": 7375,
      "rey": 7376,
      "Ġsn": 7377,
      "Ġsá»": 7378,
      "Ġsmart": 7379,
      "orry": 7380,
      "itas": 7381,
      "itter": 7382,
      "esome": 7383,
      "Ġcable": 7384,
      "Ġcatch": 7385,
      "Ġcooper": 7386,
      "isual": 7387,
      "almond": 7388,
      "arry": 7389,
      "Ġpan": 7390,
      "Ġpitch": 7391,
      "Ġfix": 7392,
      "Ġflex": 7393,
      "Ġframe": 7394,
      "Ġbes": 7395,
      "Ġband": 7396,
      "Ġbá»": 7397,
      "Ġbio": 7398,
      "Ġbrie": 7399,
      "Ġbran": 7400,
      "Ġbrought": 7401,
      "icle": 7402,
      "ician": 7403,
      "Ġmand": 7404,
      "Ġmail": 7405,
      "Ġmaster": 7406,
      "Ġmamm": 7407,
      "ĠmÃ¬nh": 7408,
      "leases": 7409,
      "Ġdocker": 7410,
      "Ġinsert": 7411,
      "oma": 7412,
      "omy": 7413,
      "enty": 7414,
      "Ġthrow": 7415,
      "ilit": 7416,
      "sts": 7417,
      "state": 7418,
      "Ġho": 7419,
      "Ġhack": 7420,
      "ĠSS": 7421,
      "Ġnf": 7422,
      "Ġnative": 7423,
      "ĠTake": 7424,
      "ĠTransform": 7425,
      "ĠTransformer": 7426,
      "Ġliz": 7427,
      "Ġlots": 7428,
      "raction": 7429,
      "ĠCic": 7430,
      "ĠClo": 7431,
      "ĠCard": 7432,
      "ĠCelsius": 7433,
      "depend": 7434,
      "uting": 7435,
      "imation": 7436,
      "image": 7437,
      "usa": 7438,
      "ĠIts": 7439,
      "otan": 7440,
      "amel": 7441,
      "ĠPsalm": 7442,
      "ĠMur": 7443,
      "ĠMethod": 7444,
      "verty": 7445,
      "ĠHot": 7446,
      "ĠHait": 7447,
      "ĠWag": 7448,
      "ĠWhere": 7449,
      "ĠWalker": 7450,
      "riage": 7451,
      "ĠGall": 7452,
      "ĠGood": 7453,
      "ĠGrilled": 7454,
      "ĠGranola": 7455,
      "Ġaspect": 7456,
      "ĠFran": 7457,
      "ĠFund": 7458,
      "Ġstru": 7459,
      "Ġstages": 7460,
      "ĠElect": 7461,
      "ĠEcology": 7462,
      "ĠDaily": 7463,
      "Ġconversion": 7464,
      "Ġiter": 7465,
      "Ġvow": 7466,
      "ĠNC": 7467,
      "ĠNav": 7468,
      "ĠNext": 7469,
      "ĠLive": 7470,
      "ĠLast": 7471,
      "ĠLau": 7472,
      "Ġori": 7473,
      "Ġseed": 7474,
      "Ġselect": 7475,
      "à¶Ĥ": 7476,
      "à¶ł": 7477,
      "Ġexternal": 7478,
      "ubble": 7479,
      "tea": 7480,
      "ĠOnce": 7481,
      "Ġ`#": 7482,
      "Ġ`.": 7483,
      "Ġring": 7484,
      "ivities": 7485,
      "Ġchair": 7486,
      "Ġchairs": 7487,
      "Ġchanged": 7488,
      "Ġchanging": 7489,
      "Ġchosen": 7490,
      "endit": 7491,
      "à°®": 7492,
      "à°ļ": 7493,
      "Ġ37": 7494,
      "Ġshut": 7495,
      "Ġships": 7496,
      "ĠJun": 7497,
      "ĠJul": 7498,
      "ĠJane": 7499,
      "ĠâĢĻ": 7500,
      "odies": 7501,
      "ĠInequ": 7502,
      "Ġ44": 7503,
      "Ġ400": 7504,
      "àª¸": 7505,
      "àªĹ": 7506,
      "Ġplatform": 7507,
      "ĠStatistics": 7508,
      "roups": 7509,
      "phd": 7510,
      "ensity": 7511,
      "Ġabc": 7512,
      "ĠThus": 7513,
      "ĠKim": 7514,
      "ĠRef": 7515,
      "ĠRequest": 7516,
      "Ġ51": 7517,
      "Ġ58": 7518,
      "Ġju": 7519,
      "ĠChall": 7520,
      "ĠChapter": 7521,
      "Ġclin": 7522,
      "Ġcloth": 7523,
      "ĠVer": 7524,
      "ildflower": 7525,
      "irement": 7526,
      "à¯Ĩ": 7527,
      "Ġcomprehensive": 7528,
      "ferent": 7529,
      "Ġserved": 7530,
      "Ġmanage": 7531,
      "ief": 7532,
      "123": 7533,
      "Ġscreen": 7534,
      "Ġtrade": 7535,
      "Ġtraditions": 7536,
      "Ġthanks": 7537,
      "Ġsphere": 7538,
      "Ġpoet": 7539,
      "Initial": 7540,
      "Ġagent": 7541,
      "Ġagreed": 7542,
      "Ġtrick": 7543,
      "ishing": 7544,
      "Ġmathematics": 7545,
      "2020": 7546,
      "Ġspecify": 7547,
      "ĠWhich": 7548,
      "Ġsolved": 7549,
      "issions": 7550,
      "ĠCommon": 7551,
      "ĠExpl": 7552,
      "ĠExercise": 7553,
      "ebooks": 7554,
      "uesday": 7555,
      "ĠAlmond": 7556,
      "cipe": 7557,
      "Ġunderwater": 7558,
      "Ġbuck": 7559,
      "Ġcoverage": 7560,
      "cape": 7561,
      "aho": 7562,
      "Ġaccuracy": 7563,
      "Ġassume": 7564,
      "Ġregime": 7565,
      "Ġregulation": 7566,
      "Ġsimultaneous": 7567,
      "Ġknows": 7568,
      "Ġserving": 7569,
      "commod": 7570,
      "Ġ_____": 7571,
      "Ġexpendit": 7572,
      "Ġlongest": 7573,
      "iveness": 7574,
      "Start": 7575,
      "ĠScot": 7576,
      "Ġcreates": 7577,
      "Ġà°ļ": 7578,
      "rane": 7579,
      "Ġweekly": 7580,
      "Ġextrem": 7581,
      "Ġgeneration": 7582,
      "ffective": 7583,
      "2006": 7584,
      "ĠTea": 7585,
      "ĠTeam": 7586,
      "ĠTeaching": 7587,
      "Ġplayed": 7588,
      "Ġcounty": 7589,
      "Ġtransp": 7590,
      "Ġowned": 7591,
      "Ġcarried": 7592,
      "Ġflight": 7593,
      "scrib": 7594,
      "Ġexpert": 7595,
      "Who": 7596,
      "ÐµÐ¼": 7597,
      "Ġexploring": 7598,
      "Ġexplanation": 7599,
      "ANT": 7600,
      "Ġsigned": 7601,
      "Answer": 7602,
      "Ġmarkets": 7603,
      "Ġguaran": 7604,
      "poached": 7605,
      "ercase": 7606,
      "ributions": 7607,
      "896": 7608,
      "Exp": 7609,
      "onda": 7610,
      "ĠIsland": 7611,
      "}$.": 7612,
      "Ġfinally": 7613,
      "porary": 7614,
      "olescent": 7615,
      "ĠLeg": 7616,
      "Ġletters": 7617,
      "298": 7618,
      "Ġsomew": 7619,
      "Ġremaining": 7620,
      "ĠCollection": 7621,
      "Ġoccup": 7622,
      "Ġpresence": 7623,
      "Although": 7624,
      "Ġdryland": 7625,
      "ĠPoached": 7626,
      "Ġmoving": 7627,
      "Ġphysics": 7628,
      "download": 7629,
      "Ġhomework": 7630,
      "ognitive": 7631,
      "Ġrecorded": 7632,
      "Ġdiagram": 7633,
      "Ġillness": 7634,
      "Ġexistence": 7635,
      "Ġcollaboration": 7636,
      "Def": 7637,
      "Ġforeign": 7638,
      "Ġcompliance": 7639,
      "ĠCountry": 7640,
      "ĠAngle": 7641,
      "ĠSpecific": 7642,
      "package": 7643,
      "Ġinternet": 7644,
      "ĠSimilar": 7645,
      "Ġwonder": 7646,
      "Ġjobs": 7647,
      "Ġaccepted": 7648,
      "Ġimprovement": 7649,
      "attery": 7650,
      "Ġnewslet": 7651,
      "Ġfailed": 7652,
      "Ġinmate": 7653,
      "ĠRelig": 7654,
      "ĠRelations": 7655,
      "Ġà¨ķà¨°": 7656,
      "Ġaccurately": 7657,
      "ĠIntroduction": 7658,
      "ĠMuslim": 7659,
      "Ġdimensions": 7660,
      "Ġharness": 7661,
      "Ġlabel": 7662,
      "Ġnumerous": 7663,
      "ĠInstall": 7664,
      "Ġdefinition": 7665,
      "ĠSTART": 7666,
      "Ġobtained": 7667,
      "Ġutil": 7668,
      "Ġtwice": 7669,
      "Ġcycle": 7670,
      "ĠMichael": 7671,
      "Ġproposal": 7672,
      "Ġdiscovery": 7673,
      "Difficulty": 7674,
      "News": 7675,
      "Ġlaunch": 7676,
      "petit": 7677,
      "Ġfeedback": 7678,
      "screenshot": 7679,
      "Ġarchitecture": 7680,
      "Ġhousing": 7681,
      "Ġfundamental": 7682,
      "Ø§ÙĦØ": 7683,
      "ĠClaims": 7684,
      "ĠRobert": 7685,
      "Ġconstraints": 7686,
      "Ġinspectors": 7687,
      "Ġvehicle": 7688,
      "Ġodd": 7689,
      "Ġnutrition": 7690,
      "FILE": 7691,
      "Ġadvertising": 7692,
      "Ġradio": 7693,
      "Ġerrors": 7694,
      "ĠAssociation": 7695,
      "ypothesis": 7696,
      "Ġcertific": 7697,
      "ĠAcademy": 7698,
      "Ġexcellent": 7699,
      "Ġhorizontal": 7700,
      "Activity": 7701,
      "Ġsermo": 7702,
      "ĠKonerko": 7703,
      "ĠMATLAB": 7704,
      "Ġunemployment": 7705,
      "yclop": 7706,
      "Ġupper": 7707,
      "''": 7708,
      "389": 7709,
      ":<": 7710,
      "Ap": 7711,
      "Americ": 7712,
      "Business": 7713,
      "Build": 7714,
      "BRA": 7715,
      "Cre": 7716,
      "Cons": 7717,
      "CCI": 7718,
      "EF": 7719,
      "Ed": 7720,
      "Ear": 7721,
      "French": 7722,
      "GS": 7723,
      "IB": 7724,
      "Ill": 7725,
      "Just": 7726,
      "Length": 7727,
      "MP": 7728,
      "Map": 7729,
      "MIT": 7730,
      "MGWR": 7731,
      "NO": 7732,
      "Nucle": 7733,
      "Number": 7734,
      "Other": 7735,
      "Rec": 7736,
      "Rapid": 7737,
      "Sweet": 7738,
      "Solution": 7739,
      "Two": 7740,
      "TER": 7741,
      "Yes": 7742,
      "[\\": 7743,
      "[][": 7744,
      "aun": 7745,
      "aur": 7746,
      "bes": 7747,
      "biscuits": 7748,
      "din": 7749,
      "den": 7750,
      "dir": 7751,
      "dried": 7752,
      "egg": 7753,
      "free": 7754,
      "found": 7755,
      "giving": 7756,
      "jo": 7757,
      "lv": 7758,
      "len": 7759,
      "mc": 7760,
      "nar": 7761,
      "pub": 7762,
      "ráº¹": 7763,
      "rings": 7764,
      "rpetit": 7765,
      "sub": 7766,
      "true": 7767,
      "uated": 7768,
      "vol": 7769,
      "vate": 7770,
      "wings": 7771,
      "yin": 7772,
      "yan": 7773,
      "years": 7774,
      "zhe": 7775,
      "zer": 7776,
      "zen": 7777,
      "zfs": 7778,
      "}_{": 7779,
      "Å©": 7780,
      "Î±": 7781,
      "Ú©": 7782,
      "ÛĴ": 7783,
      "áĬ": 7784,
      "ãĢ": 7785,
      "Ġeth": 7786,
      "Ġ}}": 7787,
      "ĠÃ¡": 7788,
      "Ġvelocity": 7789,
      "ĠtÃ³": 7790,
      "Ġturt": 7791,
      "inláº¹": 7792,
      "Ġactions": 7793,
      "real": 7794,
      "Ġtheory": 7795,
      "Ġson": 7796,
      "Ġsick": 7797,
      "Ġsaving": 7798,
      "Ġsession": 7799,
      "Ġsnaps": 7800,
      "Ġsleep": 7801,
      "ito": 7802,
      "esame": 7803,
      "esec": 7804,
      "Ġcat": 7805,
      "Ġcro": 7806,
      "Ġcamp": 7807,
      "Ġclock": 7808,
      "Ġcovered": 7809,
      "isers": 7810,
      "isSero": 7811,
      "Ġwish": 7812,
      "ali": 7813,
      "Ġped": 7814,
      "Ġpus": 7815,
      "Ġpicture": 7816,
      "Ġfalse": 7817,
      "Ġfashion": 7818,
      "Ġbul": 7819,
      "Ġbind": 7820,
      "Ġbought": 7821,
      "Ġbottom": 7822,
      "Ġmel": 7823,
      "Ġmeng": 7824,
      "leetcode": 7825,
      "Ġden": 7826,
      "Ġdra": 7827,
      "Ġdark": 7828,
      "asure": 7829,
      "ille": 7830,
      "ilers": 7831,
      "ĠAra": 7832,
      "store": 7833,
      "storm": 7834,
      "Ġhá»": 7835,
      "Ġhref": 7836,
      "ĠSL": 7837,
      "ĠSion": 7838,
      "ĠSupp": 7839,
      "ĠSUB": 7840,
      "ĠSIZ": 7841,
      "etts": 7842,
      "ĠnÃŃ": 7843,
      "ĠnÃ¡Ãł": 7844,
      "Ġreact": 7845,
      "Ġreleased": 7846,
      "ĠTE": 7847,
      "ĠTom": 7848,
      "ĠTig": 7849,
      "ĠTax": 7850,
      "ĠTex": 7851,
      "ĠTrue": 7852,
      "Ġeffic": 7853,
      "Ġecos": 7854,
      "Ġli": 7855,
      "Ġlic": 7856,
      "Ġlain": 7857,
      "Ġlists": 7858,
      "Ġlcd": 7859,
      "ĠCA": 7860,
      "ĠCO": 7861,
      "ĠCa": 7862,
      "ĠCare": 7863,
      "ĠCards": 7864,
      "users": 7865,
      "usetts": 7866,
      "Ġgro": 7867,
      "Ġgcd": 7868,
      "Ġgba": 7869,
      "Ġgarden": 7870,
      "Ġ(`": 7871,
      "oting": 7872,
      "otle": 7873,
      "igate": 7874,
      "Ġyoo": 7875,
      "Ġbeam": 7876,
      "ĠPan": 7877,
      "ĠPur": 7878,
      "ĠPass": 7879,
      "ĠPack": 7880,
      "ĠME": 7881,
      "ĠMov": 7882,
      "ĠMSC": 7883,
      "url": 7884,
      "urning": 7885,
      "adian": 7886,
      "adium": 7887,
      "ĠBon": 7888,
      "ĠBun": 7889,
      "ĠBoy": 7890,
      "ĠBAL": 7891,
      "ĠBiscuits": 7892,
      "ĠRA": 7893,
      "ĠRPE": 7894,
      "idi": 7895,
      "001": 7896,
      "ĠWashington": 7897,
      "segment": 7898,
      "Ġasc": 7899,
      "Ġasplain": 7900,
      "ĠFound": 7901,
      "ĠFah": 7902,
      "ĠField": 7903,
      "term": 7904,
      "Ġstuff": 7905,
      "Ġstores": 7906,
      "ĠEnd": 7907,
      "ĠDan": 7908,
      "ĠDried": 7909,
      "ando": 7910,
      "Ġconce": 7911,
      "acme": 7912,
      "that": 7913,
      "thyme": 7914,
      "ĠNuclear": 7915,
      "ĠLaw": 7916,
      "Ġorth": 7917,
      "Ġseek": 7918,
      "Ġseating": 7919,
      "Ġseats": 7920,
      "Ġsegment": 7921,
      "Ġweigh": 7922,
      "à¶¶": 7923,
      "pepper": 7924,
      "Ġexclus": 7925,
      "ewered": 7926,
      "teger": 7927,
      "ĠOak": 7928,
      "ĠOld": 7929,
      "à·ģ": 7930,
      "Ġrank": 7931,
      "emb": 7932,
      "inegar": 7933,
      "ustain": 7934,
      "Ġchor": 7935,
      "Ġchart": 7936,
      "à°¸": 7937,
      "$$-": 7938,
      "ĠUSB": 7939,
      "ptitude": 7940,
      "Ġ2019": 7941,
      "Ġnotice": 7942,
      "Ġnothing": 7943,
      "Ġsharing": 7944,
      "ĠJan": 7945,
      "Ġunc": 7946,
      "Ġunivers": 7947,
      "perties": 7948,
      "oda": 7949,
      "odd": 7950,
      "odo": 7951,
      "á»įmi": 7952,
      "ogen": 7953,
      "Ġ43": 7954,
      "Ġ47": 7955,
      "Ġplasm": 7956,
      "ffe": 7957,
      "ĠStatus": 7958,
      "izer": 7959,
      "ellig": 7960,
      "1080": 7961,
      "Ġabstract": 7962,
      "ĠThyme": 7963,
      "ĠKel": 7964,
      "achusetts": 7965,
      "ĠReal": 7966,
      "Ġ52": 7967,
      "duck": 7968,
      "Ġresolution": 7969,
      "ikan": 7970,
      "Ġclients": 7971,
      "Ġparties": 7972,
      "Ġ1939": 7973,
      "Ġ1976": 7974,
      "Ġende": 7975,
      "Ġoutcomes": 7976,
      "à¯ĩ": 7977,
      "Ġcomposite": 7978,
      "Ġ600": 7979,
      "Ġdisci": 7980,
      "Ġdispos": 7981,
      "Ġserial": 7982,
      "Ġservers": 7983,
      "Ġserotype": 7984,
      "Ġmanaged": 7985,
      "Ġarrange": 7986,
      "Ġarticles": 7987,
      "Ġequipment": 7988,
      "ovel": 7989,
      "Ġteeth": 7990,
      "Ġspat": 7991,
      "ĠUnion": 7992,
      "alsamic": 7993,
      "Ġà¶ħ": 7994,
      "Ġà¶ĩ": 7995,
      "Ġà¶ľ": 7996,
      "ibration": 7997,
      "Ġcollected": 7998,
      "Ġ978": 7999,
      "Ġfindings": 8000,
      "Ġ70": 8001,
      "Ġraw": 8002,
      "Ġpregn": 8003,
      "racted": 8004,
      "ĠComple": 8005,
      "terns": 8006,
      "ternut": 8007,
      "Ġformed": 8008,
      "ĠAlzhe": 8009,
      "ĠProduct": 8010,
      "Ġtheme": 8011,
      "Ġsubstit": 8012,
      "Ġoffered": 8013,
      "114": 8014,
      "renheit": 8015,
      "Ġsett": 8016,
      "Ġregions": 8017,
      "Ġseeing": 8018,
      "Ġterminal": 8019,
      "Ġposting": 8020,
      "Ġinstructions": 8021,
      "ĠâĦ": 8022,
      "Ã¡y": 8023,
      "Ġconsult": 8024,
      "Ġdetachment": 8025,
      "pected": 8026,
      "Ġsupple": 8027,
      "ĠQuiz": 8028,
      "Ġexpos": 8029,
      "Ġexpensive": 8030,
      "Ġexpressions": 8031,
      "Ġexpansion": 8032,
      "Ġhelps": 8033,
      "Ġvariant": 8034,
      "Ġconstit": 8035,
      "164": 8036,
      "168": 8037,
      "Ġàªµ": 8038,
      "Ġcommunicate": 8039,
      "Ġedition": 8040,
      "Ġsurvey": 8041,
      "Ġminor": 8042,
      "ĠReturn": 8043,
      "2005": 8044,
      "ĠShow": 8045,
      "Ġentity": 8046,
      "Ġintended": 8047,
      "Ġintention": 8048,
      "REE": 8049,
      "Reg": 8050,
      "Reader": 8051,
      "Ġ1991": 8052,
      "Ġelim": 8053,
      "Ġtransition": 8054,
      "Ġendpoint": 8055,
      "Ġdegener": 8056,
      "Ġcorpor": 8057,
      "Ġbackground": 8058,
      "Ġevening": 8059,
      "ĠSpiced": 8060,
      "Ġmedian": 8061,
      "standing": 8062,
      "arma": 8063,
      "Ġinfect": 8064,
      "rawberries": 8065,
      "Ġpractical": 8066,
      "Ġsitting": 8067,
      "Ġlisten": 8068,
      "Any": 8069,
      "imself": 8070,
      "Ġkeyboard": 8071,
      "Ġrepresentatives": 8072,
      "Ð¸ÑĢ": 8073,
      "Ġwanted": 8074,
      "Ġpresented": 8075,
      "lerless": 8076,
      "ÐºÑĭ": 8077,
      "check": 8078,
      "Ġfinished": 8079,
      "ĠÂ·": 8080,
      "Ġproviders": 8081,
      "liest": 8082,
      "Ġpayment": 8083,
      "à¶¯à¶Ń": 8084,
      "Æ°á»Ľ": 8085,
      "Ġgradu": 8086,
      "Ġtrees": 8087,
      "ĠColor": 8088,
      "Ġpresident": 8089,
      "Ġdestruction": 8090,
      "Ġconfirm": 8091,
      "Ġantlerless": 8092,
      "Ġlighting": 8093,
      "Ġprediction": 8094,
      "Ġindeed": 8095,
      "Ġencoun": 8096,
      "ervation": 8097,
      "Ġhandle": 8098,
      "ĠBritain": 8099,
      "Ġamounts": 8100,
      "Ġmeasurement": 8101,
      "ĠBiol": 8102,
      "Ġviews": 8103,
      "flat": 8104,
      "Ġsorted": 8105,
      "runner": 8106,
      "Ġelectrons": 8107,
      "Ġmissing": 8108,
      "Ġmissile": 8109,
      "Ġconnected": 8110,
      "ĠREPL": 8111,
      "Ġestimation": 8112,
      "âĲįâĲĬâĲįâĲĬ": 8113,
      "ĠGermany": 8114,
      "ĠNowell": 8115,
      "Ġà¤ª": 8116,
      "ducing": 8117,
      "packages": 8118,
      "Ò¯Ð½": 8119,
      "ĠIllum": 8120,
      "Ġoriginally": 8121,
      "Ġcooking": 8122,
      "Ġcookies": 8123,
      "Ġseems": 8124,
      "Ġriver": 8125,
      "ĠÐ±Ð¾Ð»": 8126,
      "antusia": 8127,
      "Ġnecessarily": 8128,
      "ĠViews": 8129,
      "ĠViewed": 8130,
      "Ġteacher": 8131,
      "--------------------------------": 8132,
      "7924": 8133,
      "Ġwidely": 8134,
      "Ġdrugs": 8135,
      "ĠRedu": 8136,
      "uginos": 8137,
      "ĠAgain": 8138,
      "Ġbrand": 8139,
      "Ġhousehold": 8140,
      "ĠFrank": 8141,
      "Ġstrategies": 8142,
      "Ġassessment": 8143,
      "................": 8144,
      "ĠBrook": 8145,
      "ĠEXAM": 8146,
      "GEBRA": 8147,
      "ĠAND": 8148,
      "Ġevaluate": 8149,
      "Ġemployee": 8150,
      "Ġrespectively": 8151,
      "Ġà¶»à·ĥ": 8152,
      "Ġà¨īà¨¸": 8153,
      "Ġsurvive": 8154,
      "Marketing": 8155,
      "ĠEvening": 8156,
      "ĠChildren": 8157,
      "Ġlaunched": 8158,
      "slot": 8159,
      "ĠInsider": 8160,
      "ĠCroat": 8161,
      "inciples": 8162,
      "atalog": 8163,
      "ĠApric": 8164,
      "ocenter": 8165,
      "Ġschedule": 8166,
      "Ġcorner": 8167,
      "ĠJobs": 8168,
      "ĠAsked": 8169,
      "ĠMassachusetts": 8170,
      "ĠHTTP": 8171,
      "istachios": 8172,
      "rastructure": 8173,
      "ĠTurk": 8174,
      "ĠThomas": 8175,
      "ĠOrganic": 8176,
      "jpg": 8177,
      "Äĥm": 8178,
      "ĠContinuity": 8179,
      "ylogenetic": 8180,
      "Ġtrouble": 8181,
      "ĠBeyond": 8182,
      "ĠEncyclop": 8183,
      "à©Ĥà©°": 8184,
      "ĠWilliam": 8185,
      "Ġaeruginos": 8186,
      "Ġpneumonia": 8187,
      "ĠCREDIT": 8188,
      "ĠYoruba": 8189,
      "Ġexperiments": 8190,
      "Ġkegiatan": 8191,
      "displaystyle": 8192,
      "snippet": 8193,
      "ĠWagner": 8194,
      "Ġexpenditure": 8195,
      "Nucleic": 8196,
      "ĠSIZE": 8197,
      "ĠTexas": 8198,
      "Ġecosystem": 8199,
      "ĠBALANCE": 8200,
      "ĠFahrenheit": 8201,
      "ĠAlzheimer": 8202,
      "\").": 8203,
      "%)": 8204,
      ")-": 8205,
      ")}\\": 8206,
      "-\\": 8207,
      ".:": 8208,
      "/).": 8209,
      "1128": 8210,
      "300": 8211,
      "350": 8212,
      "435": 8213,
      "550": 8214,
      "875": 8215,
      ":**": 8216,
      "??": 8217,
      "Are": 8218,
      "Ant": 8219,
      "Bas": 8220,
      "Below": 8221,
      "CL": 8222,
      "Cal": 8223,
      "Date": 8224,
      "EX": 8225,
      "Eb": 8226,
      "End": 8227,
      "Follow": 8228,
      "GA": 8229,
      "Get": 8230,
      "However": 8231,
      "KS": 8232,
      "Key": 8233,
      "KEN": 8234,
      "LY": 8235,
      "Look": 8236,
      "MB": 8237,
      "Mash": 8238,
      "NOT": 8239,
      "OO": 8240,
      "Right": 8241,
      "Rules": 8242,
      "SW": 8243,
      "Sc": 8244,
      "Sum": 8245,
      "Serv": 8246,
      "Top": 8247,
      "Tool": 8248,
      "Up": 8249,
      "View": 8250,
      "Video": 8251,
      "])": 8252,
      "bu": 8253,
      "cest": 8254,
      "dim": 8255,
      "dri": 8256,
      "ev": 8257,
      "fol": 8258,
      "field": 8259,
      "files": 8260,
      "fidence": 8261,
      "gk": 8262,
      "gt": 8263,
      "green": 8264,
      "hi": 8265,
      "hal": 8266,
      "how": 8267,
      "home": 8268,
      "hybrid": 8269,
      "iency": 8270,
      "ja": 8271,
      "jan": 8272,
      "jam": 8273,
      "lan": 8274,
      "lie": 8275,
      "linder": 8276,
      "mash": 8277,
      "mann": 8278,
      "mission": 8279,
      "mgen": 8280,
      "nic": 8281,
      "oices": 8282,
      "pic": 8283,
      "page": 8284,
      "such": 8285,
      "selves": 8286,
      "times": 8287,
      "was": 8288,
      "wrapper": 8289,
      "xico": 8290,
      "ying": 8291,
      "yter": 8292,
      "});": 8293,
      "ÏĢ": 8294,
      "Ġtang": 8295,
      "inent": 8296,
      "input": 8297,
      "held": 8298,
      "reaks": 8299,
      "erals": 8300,
      "Ġtheorem": 8301,
      "Ġsqrt": 8302,
      "itations": 8303,
      "itrogen": 8304,
      "Ġcast": 8305,
      "Ġcop": 8306,
      "Ġcities": 8307,
      "Ġcris": 8308,
      "Ġcategories": 8309,
      "isation": 8310,
      "Ġoxy": 8311,
      "Ġwat": 8312,
      "Ġwest": 8313,
      "Ġwww": 8314,
      "Ġwider": 8315,
      "Ġwinning": 8316,
      "Ġwelcome": 8317,
      "alah": 8318,
      "ario": 8319,
      "Ġpool": 8320,
      "Ġfather": 8321,
      "Ġfully": 8322,
      "edy": 8323,
      "Ġbor": 8324,
      "Ġbay": 8325,
      "Ġboo": 8326,
      "Ġbaby": 8327,
      "Ġbanned": 8328,
      "Ġbodies": 8329,
      "Ġbattery": 8330,
      "Ġmist": 8331,
      "Ġmph": 8332,
      "leh": 8333,
      "Ġdil": 8334,
      "Ġdates": 8335,
      "Ġdeng": 8336,
      "Ġtomor": 8337,
      "astern": 8338,
      "Ġthy": 8339,
      "Ġthunder": 8340,
      "ĠAJ": 8341,
      "ĠApr": 8342,
      "ĠAtt": 8343,
      "ĠAWS": 8344,
      "ĠAptitude": 8345,
      "Ġharm": 8346,
      "Ġhooks": 8347,
      "Ġhimself": 8348,
      "ĠSC": 8349,
      "ĠSm": 8350,
      "ĠSerial": 8351,
      "ĠSometimes": 8352,
      "ĠSBI": 8353,
      "ĠSeries": 8354,
      "ĠSesame": 8355,
      "ros": 8356,
      "root": 8357,
      "ette": 8358,
      "etary": 8359,
      "Ġnov": 8360,
      "Ġreap": 8361,
      "Ġrefere": 8362,
      "Ġrender": 8363,
      "Ġreaction": 8364,
      "ĠTable": 8365,
      "ĠTask": 8366,
      "ĠTogether": 8367,
      "Ġlori": 8368,
      "Ġloop": 8369,
      "Ġlibraries": 8370,
      "rays": 8371,
      "ĠCreat": 8372,
      "ĠCancer": 8373,
      "ima": 8374,
      "imore": 8375,
      "imicrobial": 8376,
      "chron": 8377,
      "Ġ250": 8378,
      "Ġ215": 8379,
      "unction": 8380,
      "unately": 8381,
      "Ġforg": 8382,
      "ĠPC": 8383,
      "ĠPers": 8384,
      "ĠPerm": 8385,
      "ĠPink": 8386,
      "ĠPull": 8387,
      "ĠPears": 8388,
      "ĠPRO": 8389,
      "ĠMR": 8390,
      "ĠMi": 8391,
      "ĠMs": 8392,
      "ĠMod": 8393,
      "ĠMind": 8394,
      "ĠMont": 8395,
      "ĠMarg": 8396,
      "ĠMater": 8397,
      "ĠMoon": 8398,
      "ulk": 8399,
      "uling": 8400,
      "ulas": 8401,
      "uries": 8402,
      "urches": 8403,
      "ady": 8404,
      "ĠBal": 8405,
      "ĠBook": 8406,
      "ĠBuff": 8407,
      "ĠRay": 8408,
      "ĠRate": 8409,
      "ĠRates": 8410,
      "ĠRapid": 8411,
      "ĠHuy": 8412,
      "iding": 8413,
      "eless": 8414,
      "irin": 8415,
      "ĠWins": 8416,
      "secut": 8417,
      "ĠGen": 8418,
      "ĠGene": 8419,
      "ĠGreens": 8420,
      "iful": 8421,
      "ifest": 8422,
      "Ġasync": 8423,
      "ĠFA": 8424,
      "ĠFR": 8425,
      "ĠFest": 8426,
      "ĠFuture": 8427,
      "ĠFAST": 8428,
      "Ġstable": 8429,
      "Ġstands": 8430,
      "Ġstories": 8431,
      "ĠDu": 8432,
      "ĠDig": 8433,
      "ĠDatas": 8434,
      "ander": 8435,
      "Ġconference": 8436,
      "Ġconsole": 8437,
      "abah": 8438,
      "Ġ[\"": 8439,
      "acher": 8440,
      "Ġvast": 8441,
      "heric": 8442,
      "ĠNov": 8443,
      "ĠNatural": 8444,
      "ĠLes": 8445,
      "ĠLibrary": 8446,
      "isted": 8447,
      "loom": 8448,
      "loss": 8449,
      "Ġsect": 8450,
      "peanut": 8451,
      "akers": 8452,
      "ewe": 8453,
      "ĠOT": 8454,
      "antage": 8455,
      "aints": 8456,
      "Ġrough": 8457,
      "Ġrational": 8458,
      "comput": 8459,
      "occus": 8460,
      "Ġheat": 8461,
      "Ġchain": 8462,
      "Ġchose": 8463,
      "Ġchicken": 8464,
      "Ġchann": 8465,
      "Ġchamp": 8466,
      "à®´": 8467,
      "udget": 8468,
      "ighted": 8469,
      "Ġcanon": 8470,
      "ĠURL": 8471,
      "Ġshapes": 8472,
      "ĠJA": 8473,
      "ĠJo": 8474,
      "Ġwilling": 8475,
      "Ġuniversity": 8476,
      "Ġunless": 8477,
      "plify": 8478,
      "perger": 8479,
      "odes": 8480,
      "ĠInference": 8481,
      "ormal": 8482,
      "Ġplugin": 8483,
      "actopia": 8484,
      "ensperger": 8485,
      "107": 8486,
      "1099": 8487,
      "avas": 8488,
      "ĠThanks": 8489,
      "ĠKing": 8490,
      "ĠKap": 8491,
      "ĠRepresent": 8492,
      "ĠRecipe": 8493,
      "Ġquad": 8494,
      "Ġ512": 8495,
      "apa": 8496,
      "Ġmeat": 8497,
      "Ġmeant": 8498,
      "Ġji": 8499,
      "ĠChange": 8500,
      "Ġparty": 8501,
      "Ġcontents": 8502,
      "open": 8503,
      "Ġsoft": 8504,
      "Ġà¨¬": 8505,
      "ĠVersion": 8506,
      "ĠVisual": 8507,
      "ĠYard": 8508,
      "Ġcomparing": 8509,
      "Ġ65": 8510,
      "Ġ69": 8511,
      "ricts": 8512,
      "ricted": 8513,
      "129": 8514,
      "epak": 8515,
      "Ġarms": 8516,
      "Ġequipped": 8517,
      "Ġscar": 8518,
      "Ġpoverty": 8519,
      "Inc": 8520,
      "Information": 8521,
      "Input": 8522,
      "Ġfunds": 8523,
      "Ġtrust": 8524,
      "Ġà¶¢": 8525,
      "ibly": 8526,
      "Ġ89": 8527,
      "Ġcolors": 8528,
      "Ġnewly": 8529,
      "next": 8530,
      "Ġoverhead": 8531,
      "ĠWhole": 8532,
      "ĠWhitle": 8533,
      "Ġmax": 8534,
      "Ġsolver": 8535,
      "Ġraised": 8536,
      "1958": 8537,
      "ifications": 8538,
      "apped": 8539,
      "application": 8540,
      "}}{\\": 8541,
      "ĠArmy": 8542,
      "Ġformal": 8543,
      "à¤¨": 8544,
      "Ġdepth": 8545,
      "Ġdeposit": 8546,
      "Ġphil": 8547,
      "ĠÐ¿": 8548,
      "Ġsau": 8549,
      "ĠAns": 8550,
      "ĠAnother": 8551,
      "Ġprovision": 8552,
      "Ġrecall": 8553,
      "Ġinstruction": 8554,
      "ĠDevelop": 8555,
      "ĠDeepak": 8556,
      "Ġ&&": 8557,
      "Ã¡ng": 8558,
      "shall": 8559,
      "shrimp": 8560,
      "sharp": 8561,
      "pective": 8562,
      "Ġmostly": 8563,
      "Ġsupplies": 8564,
      "Ġindicated": 8565,
      "Ġindicate": 8566,
      "ĠQuick": 8567,
      "Ġexpense": 8568,
      "Ġexplore": 8569,
      "ĠÄĲ": 8570,
      "Ġvariants": 8571,
      "Stud": 8572,
      "ĠScal": 8573,
      "Ġproduces": 8574,
      "Ġdecimals": 8575,
      "exp": 8576,
      "Ġearliest": 8577,
      "ĠConver": 8578,
      "ĠConversion": 8579,
      "Ġaccompl": 8580,
      "ĠÄĳo": 8581,
      "ranberry": 8582,
      "Ġremove": 8583,
      "Ġremote": 8584,
      "ĠàªĨ": 8585,
      "Ġàªķ": 8586,
      "Ġextent": 8587,
      "Ġextension": 8588,
      "Ġà®ħ": 8589,
      "Ġà®ĩ": 8590,
      "Ġà®ļ": 8591,
      "Ġcalibration": 8592,
      "ĠButler": 8593,
      "Ġaware": 8594,
      "Ġcenters": 8595,
      "ĠShrimp": 8596,
      "spicy": 8597,
      "Ġentertain": 8598,
      "Ġintroduction": 8599,
      "ATED": 8600,
      "figs": 8601,
      "Ġdistinct": 8602,
      "ÃŃs": 8603,
      "Ġcounting": 8604,
      "Ġends": 8605,
      "Ġowner": 8606,
      "ĠResource": 8607,
      "Ġbuildings": 8608,
      "366": 8609,
      "Ġflu": 8610,
      "ĠSpan": 8611,
      "Ġcontinues": 8612,
      "armed": 8613,
      "Ġinfrastructure": 8614,
      "Ġimportance": 8615,
      "ĠBeh": 8616,
      "ÑĭÐ»": 8617,
      "Ġsecondary": 8618,
      "ÐµÑĢ": 8619,
      "Ġá»įlá»į": 8620,
      "ĠSchools": 8621,
      "à¥ĩ": 8622,
      "Ġdiscrim": 8623,
      "lesson": 8624,
      "Æ°Æ¡": 8625,
      "Ġmetric": 8626,
      "Ġpasses": 8627,
      "Ġguys": 8628,
      "Ġcontained": 8629,
      "Ġcostumes": 8630,
      "ĠCommun": 8631,
      "iscal": 8632,
      "Ġrepresentation": 8633,
      "Provider": 8634,
      "Ġmodify": 8635,
      "Ġmodified": 8636,
      "Ġprocesses": 8637,
      "ĠCarolina": 8638,
      "LEN": 8639,
      "Ġproperly": 8640,
      "Asgard": 8641,
      "Ð´Ð°": 8642,
      "ĠPepper": 8643,
      "ðĿĳĺ": 8644,
      "ÐºÑĤ": 8645,
      "Ġfacilit": 8646,
      "while": 8647,
      "Ġcapability": 8648,
      "ĠLevel": 8649,
      "Ġoperating": 8650,
      "etworking": 8651,
      "ĠSolve": 8652,
      "ĠCompet": 8653,
      "ĠMonday": 8654,
      "ĠMonopsony": 8655,
      "Ġtreated": 8656,
      "Ġoccasion": 8657,
      "Ġreduces": 8658,
      "Therefore": 8659,
      "Ġdepending": 8660,
      "Ġparticipated": 8661,
      "Algebra": 8662,
      "Ġera": 8663,
      "Ġdeliver": 8664,
      "ĠGeorge": 8665,
      "Ġuntuk": 8666,
      "ĠRegression": 8667,
      "Ġboot": 8668,
      "Ġauthent": 8669,
      "ossible": 8670,
      "Ġphysical": 8671,
      "Ġmeasured": 8672,
      "ĠMedical": 8673,
      "ADME": 8674,
      "Ġáº¹gbáº¹": 8675,
      "Ġorganizations": 8676,
      "service": 8677,
      "services": 8678,
      "ĠGoal": 8679,
      "Ġhomes": 8680,
      "Ġdriving": 8681,
      "Ġlogger": 8682,
      "Ġdevices": 8683,
      "Ð°Ð¿": 8684,
      "Ó©Ð½": 8685,
      "ĠPrice": 8686,
      "Ġestimates": 8687,
      "áº¥y": 8688,
      "!!!": 8689,
      "Ãºn": 8690,
      "Ġqueue": 8691,
      "Ġqueues": 8692,
      "generate": 8693,
      "generators": 8694,
      "Ġkinds": 8695,
      "Ġlimitations": 8696,
      "ĠIllust": 8697,
      "Ġtraditionally": 8698,
      "Ġprobability": 8699,
      "Ġprivacy": 8700,
      "help": 8701,
      "Ġdestroyed": 8702,
      "iá»ģu": 8703,
      "Ġauthority": 8704,
      "Ġofficial": 8705,
      "black": 8706,
      "Ġdoubt": 8707,
      "ĠArea": 8708,
      "ĠIdaho": 8709,
      "Ġpurchased": 8710,
      "ĠAfrican": 8711,
      "ĠSouthridge": 8712,
      "ĠDetail": 8713,
      "Ġlegisl": 8714,
      "Ġimmediate": 8715,
      "altimore": 8716,
      "ðĿĽ½": 8717,
      "recipe": 8718,
      "Ġcritical": 8719,
      "Ġdividing": 8720,
      "Ġappearance": 8721,
      "Ġderived": 8722,
      "ĠMuslims": 8723,
      "ĠExamples": 8724,
      "Ġadministrative": 8725,
      "Ġprinted": 8726,
      "Ġintegration": 8727,
      "sesame": 8728,
      "ĠHelp": 8729,
      "ĠAdvertisers": 8730,
      "ĠSequences": 8731,
      "Ġsensitive": 8732,
      "Ġcuboid": 8733,
      "ATIONS": 8734,
      "Ġessay": 8735,
      "Ġessential": 8736,
      "Ġevaluation": 8737,
      "Ġguidelines": 8738,
      "Ġcelebration": 8739,
      "ĠÑĩ": 8740,
      "ĠÑį": 8741,
      "Ġfestival": 8742,
      "ĠPractice": 8743,
      "Ġfrequency": 8744,
      "Ġfrequently": 8745,
      "ĠServices": 8746,
      "ĠBasic": 8747,
      "ĠInteger": 8748,
      "Ġreplaced": 8749,
      "ĠPortug": 8750,
      "Ġproportions": 8751,
      "ĠOffice": 8752,
      "ĠEuropean": 8753,
      "Ġmargin": 8754,
      "Ġmarginal": 8755,
      "Ġupdated": 8756,
      "function": 8757,
      "pineapple": 8758,
      "ĠTrigonometric": 8759,
      "ĠPublishing": 8760,
      "ĠRecord": 8761,
      "Ġprepare": 8762,
      "Ġprepared": 8763,
      "Ġconcerned": 8764,
      "instance": 8765,
      "Ġsatisf": 8766,
      "itarod": 8767,
      "Ġvá»Ľi": 8768,
      "Ġarrived": 8769,
      "Solving": 8770,
      "Ġdataset": 8771,
      "Ġdrinking": 8772,
      "ĠPineapple": 8773,
      "Ġcorresponding": 8774,
      "Ġinspections": 8775,
      "Ġelectronic": 8776,
      "Ġcamera": 8777,
      "Ġmorning": 8778,
      "ĠJews": 8779,
      "Ġà¶Ĩà¶¯": 8780,
      "ĠOutputs": 8781,
      "TOKEN": 8782,
      "Ġsouls": 8783,
      "ĠWindows": 8784,
      "Ġconclusion": 8785,
      "Ġspirit": 8786,
      "Ġspecimen": 8787,
      "ĠMarkovTextGenerator": 8788,
      "ĠTrend": 8789,
      "Ġpreparation": 8790,
      "Ġextremely": 8791,
      "ĠPopularity": 8792,
      "Ġmothers": 8793,
      "Ġvictory": 8794,
      "ibiotic": 8795,
      "ĠSupreme": 8796,
      "Ġ65536": 8797,
      "Ġrecycl": 8798,
      "ĠTeasers": 8799,
      "Ġtemplate": 8800,
      "Check": 8801,
      "Ġfifth": 8802,
      "Ġcarniv": 8803,
      "RACTIONS": 8804,
      "Ġoriá¹£a": 8805,
      "Ġturtles": 8806,
      "Ebensperger": 8807,
      "Ġoxygen": 8808,
      "Ġtomorrow": 8809,
      "ĠPermutations": 8810,
      "ĠKapur": 8811,
      "ĠWhitley": 8812,
      "Æ°Æ¡ng": 8813,
      "().": 8814,
      ")||": 8815,
      ")**": 8816,
      ")}{": 8817,
      ",-": 8818,
      ".;": 8819,
      ".).": 8820,
      "/*": 8821,
      "119": 8822,
      "250": 8823,
      "223": 8824,
      "375": 8825,
      "516": 8826,
      "645": 8827,
      "81": 8828,
      "Based": 8829,
      "During": 8830,
      "Draw": 8831,
      "EE": 8832,
      "Fl": 8833,
      "Fil": 8834,
      "Gra": 8835,
      "HM": 8836,
      "KE": 8837,
      "Light": 8838,
      "Lemon": 8839,
      "Min": 8840,
      "Most": 8841,
      "Message": 8842,
      "Next": 8843,
      "Norman": 8844,
      "Rel": 8845,
      "Rob": 8846,
      "SD": 8847,
      "SI": 8848,
      "Sign": 8849,
      "South": 8850,
      "Support": 8851,
      "Smoke": 8852,
      "UC": 8853,
      "WA": 8854,
      "YO": 8855,
      "]]": 8856,
      "`)": 8857,
      "ais": 8858,
      "bq": 8859,
      "bel": 8860,
      "band": 8861,
      "boh": 8862,
      "bigr": 8863,
      "cap": 8864,
      "count": 8865,
      "cule": 8866,
      "cinnamon": 8867,
      "csharp": 8868,
      "dom": 8869,
      "dated": 8870,
      "dark": 8871,
      "eps": 8872,
      "eous": 8873,
      "efficient": 8874,
      "fall": 8875,
      "five": 8876,
      "fire": 8877,
      "fair": 8878,
      "fried": 8879,
      "gon": 8880,
      "gent": 8881,
      "gory": 8882,
      "greens": 8883,
      "hh": 8884,
      "hm": 8885,
      "iant": 8886,
      "iors": 8887,
      "jet": 8888,
      "jure": 8889,
      "journal": 8890,
      "kun": 8891,
      "lt": 8892,
      "lis": 8893,
      "lad": 8894,
      "length": 8895,
      "laravel": 8896,
      "mu": 8897,
      "oper": 8898,
      "opped": 8899,
      "pa": 8900,
      "pass": 8901,
      "paa": 8902,
      "pastry": 8903,
      "rand": 8904,
      "some": 8905,
      "sensitive": 8906,
      "td": 8907,
      "two": 8908,
      "tah": 8909,
      "transformer": 8910,
      "treating": 8911,
      "tasks": 8912,
      "uv": 8913,
      "woo": 8914,
      "xiv": 8915,
      "yph": 8916,
      "ycle": 8917,
      "zing": 8918,
      "{#": 8919,
      "{=": 8920,
      "})^": 8921,
      "Ã¤": 8922,
      "Ò£": 8923,
      "áĭ": 8924,
      "ä»": 8925,
      "ĉĉ": 8926,
      "Ġ]": 8927,
      "Ġice": 8928,
      "Ġ{\\": 8929,
      "ĠÂłÂłÂł": 8930,
      "ĠÚ©": 8931,
      "Ġtal": 8932,
      "Ġtables": 8933,
      "Ġtaste": 8934,
      "Ġtargets": 8935,
      "inant": 8936,
      "inating": 8937,
      "Ġaim": 8938,
      "Ġahead": 8939,
      "onion": 8940,
      "render": 8941,
      "atile": 8942,
      "Ġsociety": 8943,
      "Ġsustain": 8944,
      "oranges": 8945,
      "ester": 8946,
      "Ġcampaign": 8947,
      "ĠcÅ©": 8948,
      "isco": 8949,
      "Ġol": 8950,
      "Ġoleh": 8951,
      "alia": 8952,
      "arxiv": 8953,
      "Ġphen": 8954,
      "Ġpseudocode": 8955,
      "Ġfiscal": 8956,
      "editor": 8957,
      "Ġbx": 8958,
      "Ġblow": 8959,
      "Ġbáº¹": 8960,
      "icles": 8961,
      "Ġmo": 8962,
      "Ġmu": 8963,
      "Ġmic": 8964,
      "Ġmix": 8965,
      "Ġmission": 8966,
      "Ġmixed": 8967,
      "Ġdá»": 8968,
      "Ġdense": 8969,
      "Ġdyn": 8970,
      "Ġinsp": 8971,
      "Ġinsect": 8972,
      "asg": 8973,
      "entor": 8974,
      "ilon": 8975,
      "ilian": 8976,
      "ĠAcc": 8977,
      "stances": 8978,
      "Ġhook": 8979,
      "Ġhath": 8980,
      "Ġhair": 8981,
      "ĠSu": 8982,
      "ĠSon": 8983,
      "ĠSort": 8984,
      "ĠSite": 8985,
      "ĠSupport": 8986,
      "roxy": 8987,
      "etch": 8988,
      "etime": 8989,
      "Ġnarrow": 8990,
      "ĠnÄĥm": 8991,
      "Ġnitrogen": 8992,
      "Ġreve": 8993,
      "Ġreality": 8994,
      "ĠTurn": 8995,
      "ĠTyp": 8996,
      "ĠTaha": 8997,
      "ĠTotal": 8998,
      "ĠTuesday": 8999,
      "Ġemer": 9000,
      "ĠeBay": 9001,
      "Ġlen": 9002,
      "Ġlands": 9003,
      "Ġlicense": 9004,
      "ĠCG": 9005,
      "ĠCase": 9006,
      "ĠCong": 9007,
      "dez": 9008,
      "uted": 9009,
      "Ġ120": 9010,
      "Ġ119": 9011,
      "owers": 9012,
      "usion": 9013,
      "Ġ(\"": 9014,
      "Ġ240": 9015,
      "othe": 9016,
      "igba": 9017,
      "Ġyáº¹": 9018,
      "Ġfort": 9019,
      "Ġforced": 9020,
      "Ġbell": 9021,
      "Ġbecoming": 9022,
      "ĠPO": 9023,
      "ĠPS": 9024,
      "ĠPecan": 9025,
      "ĠMic": 9026,
      "ĠMil": 9027,
      "ĠMill": 9028,
      "ĠMach": 9029,
      "ĠMillion": 9030,
      "ĠMGWR": 9031,
      "ĠMicrosoft": 9032,
      "âĢĺ": 9033,
      "ulner": 9034,
      "ĠBoth": 9035,
      "ĠBaked": 9036,
      "ĠBisect": 9037,
      "ĠBoston": 9038,
      "ĠBaltimore": 9039,
      "ĠRol": 9040,
      "ĠRace": 9041,
      "ĠHit": 9042,
      "ĠHope": 9043,
      "ĠHawa": 9044,
      "irror": 9045,
      "ĠWall": 9046,
      "ria": 9047,
      "ifact": 9048,
      "uman": 9049,
      "umps": 9050,
      "umbers": 9051,
      "ĠFed": 9052,
      "ĠFred": 9053,
      "ĠFresh": 9054,
      "ĠFollow": 9055,
      "ĠFRACTIONS": 9056,
      "Ġstay": 9057,
      "Ġstage": 9058,
      "Ġstated": 9059,
      "Ġstack": 9060,
      "Ġstatistical": 9061,
      "ĠEver": 9062,
      "ĠEric": 9063,
      "ĠDO": 9064,
      "ĠDS": 9065,
      "ĠDri": 9066,
      "ĠDub": 9067,
      "ĠDNA": 9068,
      "ategory": 9069,
      "Ġproceed": 9070,
      "Ġprospect": 9071,
      "Ġconvent": 9072,
      "Ġconservation": 9073,
      "Ġdelete": 9074,
      "Ġvigil": 9075,
      "ĠNAND": 9076,
      "ĠLos": 9077,
      "ĠLook": 9078,
      "ĠLink": 9079,
      "istics": 9080,
      "loads": 9081,
      "Ġsevere": 9082,
      "Ġwear": 9083,
      "Ġexport": 9084,
      "Ġexcess": 9085,
      "á»¯": 9086,
      "aka": 9087,
      "tex": 9088,
      "Ġusual": 9089,
      "ndrome": 9090,
      "ĠOffic": 9091,
      "Ġ`//": 9092,
      "Ġ`{{": 9093,
      "essment": 9094,
      "Ġatau": 9095,
      "à·Ŀ": 9096,
      "Ġbytes": 9097,
      "Ġku": 9098,
      "Ġran": 9099,
      "Ġráº¥t": 9100,
      "ivals": 9101,
      "``;": 9102,
      "Ġcharts": 9103,
      "agas": 9104,
      "Ġ39": 9105,
      "Ġnotation": 9106,
      "Ġshif": 9107,
      "Ġshrub": 9108,
      "ĠJe": 9109,
      "ĠJenkins": 9110,
      "Ġunto": 9111,
      "Ġunlock": 9112,
      "Ġunknown": 9113,
      "Ġunbuck": 9114,
      "ulture": 9115,
      "odox": 9116,
      "output": 9117,
      "áº·": 9118,
      "ogy": 9119,
      "àª¯": 9120,
      "ideos": 9121,
      "Ġ06": 9122,
      "ĠStar": 9123,
      "ĠStaff": 9124,
      "upyter": 9125,
      "eller": 9126,
      "phone": 9127,
      "cles": 9128,
      "104": 9129,
      "1038": 9130,
      "avens": 9131,
      "ĠKnow": 9132,
      "ĠReason": 9133,
      "Ġqueries": 9134,
      "Ġ56": 9135,
      "apore": 9136,
      "aproxy": 9137,
      "Ġmeals": 9138,
      "Ġjourn": 9139,
      "Ġjournal": 9140,
      "iko": 9141,
      "Ġpartial": 9142,
      "Ġ1964": 9143,
      "rupt": 9144,
      "Ġcompens": 9145,
      "connect": 9146,
      "Ġdism": 9147,
      "azing": 9148,
      "Ġserotyping": 9149,
      "ignore": 9150,
      "ĠAndrew": 9151,
      "122": 9152,
      "125": 9153,
      "githubuser": 9154,
      "Ġteach": 9155,
      "ĠUnits": 9156,
      "Ġknew": 9157,
      "Ġagg": 9158,
      "venues": 9159,
      "Ġtrim": 9160,
      "Ġ83": 9161,
      "Ġcoll": 9162,
      "ĠQuality": 9163,
      "Ġ91440000000": 9164,
      "Ġmatters": 9165,
      "neo": 9166,
      "creen": 9167,
      "proced": 9168,
      "Ġvalu": 9169,
      "ebreaks": 9170,
      "1994": 9171,
      "Ġourselves": 9172,
      "apping": 9173,
      "ĠAltern": 9174,
      "à¤¸": 9175,
      "Thanks": 9176,
      "Ġijá»įba": 9177,
      "ologists": 9178,
      "Ãłi": 9179,
      "Ġcoffee": 9180,
      "ĠÐ¾": 9181,
      "ĠDeath": 9182,
      "Ġreliable": 9183,
      "Ġrelatively": 9184,
      "Ġpositions": 9185,
      "Ġconsists": 9186,
      "2010": 9187,
      "Ġobl": 9188,
      "Ġdevelopers": 9189,
      "236": 9190,
      "Ġmypy": 9191,
      "Ġdied": 9192,
      "Ġexpressed": 9193,
      "Ġclassification": 9194,
      "ĠClicks": 9195,
      "asked": 9196,
      "ĠScore": 9197,
      "ĠScript": 9198,
      "getables": 9199,
      "Ġearn": 9200,
      "ĠSelect": 9201,
      "ĠConcept": 9202,
      "ĠConference": 9203,
      "13298": 9204,
      "ypers": 9205,
      "Ġacute": 9206,
      "Ġaccomp": 9207,
      "ĠÄĳáº§u": 9208,
      "Ġweekend": 9209,
      "Ġempty": 9210,
      "Ġemotions": 9211,
      "cope": 9212,
      "oke": 9213,
      "á¹£e": 9214,
      "Ġgenerator": 9215,
      "Ġsurround": 9216,
      "Ġsmallpox": 9217,
      "ncbi": 9218,
      "ersonal": 9219,
      "spack": 9220,
      "Ġfoundation": 9221,
      "Ġdistributed": 9222,
      "Ġ1992": 9223,
      "Ġblind": 9224,
      "Ġhealthcare": 9225,
      "Ġattend": 9226,
      "Ġattached": 9227,
      "Ġattorney": 9228,
      "Ġrefers": 9229,
      "ÂłÂłÂłÂłÂłÂłÂłÂłÂłÂłÂł": 9230,
      "3613298": 9231,
      "Ġmodeling": 9232,
      "Ġgoods": 9233,
      "Ġpopulations": 9234,
      "Ġmedicine": 9235,
      "Ġimmun": 9236,
      "scale": 9237,
      "Ġfamous": 9238,
      "Ġinterests": 9239,
      "ippi": 9240,
      "Ġinfo": 9241,
      "Ġsupports": 9242,
      "uffed": 9243,
      "Ġshowing": 9244,
      "ITY": 9245,
      "grxy": 9246,
      "ancing": 9247,
      "Ġexploration": 9248,
      "ĠEngland": 9249,
      "Ġdisclos": 9250,
      "Ġsigns": 9251,
      "Ġpassing": 9252,
      "à´ª": 9253,
      "ĠPercent": 9254,
      "ĠPerformance": 9255,
      "ĠOnion": 9256,
      "ĠOctodon": 9257,
      "Ġguild": 9258,
      "vironments": 9259,
      "Ġmeasuring": 9260,
      "SCO": 9261,
      "ĠCommons": 9262,
      "Ġpossess": 9263,
      "ĠXantusia": 9264,
      "ĠIndian": 9265,
      "Ġrepresentations": 9266,
      "Prof": 9267,
      "Proxy": 9268,
      "dijon": 9269,
      "Ġkept": 9270,
      "Ġbelong": 9271,
      "afy": 9272,
      "Phase": 9273,
      "Ġpursu": 9274,
      "Ð´Ñĥ": 9275,
      "Ġlengths": 9276,
      "Ġidentification": 9277,
      "Ġdetermining": 9278,
      "luwoo": 9279,
      "()`": 9280,
      "whole": 9281,
      "ĠContent": 9282,
      "ĠGuard": 9283,
      "Ġtopic": 9284,
      "à¶¯à¶º": 9285,
      "ographically": 9286,
      "ĠChristians": 9287,
      "Ġengaged": 9288,
      "affles": 9289,
      "uppercase": 9290,
      "Ġhappened": 9291,
      "Comput": 9292,
      "Ð³Ð°": 9293,
      "Ġparticipate": 9294,
      "Ġmassive": 9295,
      "ĠParticip": 9296,
      "rispy": 9297,
      "093613298": 9298,
      "Ġannounce": 9299,
      "Ġimproved": 9300,
      "Ġencrypt": 9301,
      "Ġinstalled": 9302,
      "ĠBiological": 9303,
      "Ġadvoc": 9304,
      "Ġadvantage": 9305,
      "Ġpublishing": 9306,
      "ennel": 9307,
      "Ġcustoms": 9308,
      "Ġeducational": 9309,
      "Ġpowerful": 9310,
      "Ġvirtual": 9311,
      "Add": 9312,
      "Seemann": 9313,
      "Ġmolecule": 9314,
      "Ġlinked": 9315,
      "Ġdifficulty": 9316,
      "Ġradiation": 9317,
      "Ġradians": 9318,
      "Click": 9319,
      "$$\\{": 9320,
      "Ġcollections": 9321,
      "Ġrequests": 9322,
      "Ġindependently": 9323,
      "goat": 9324,
      "ĠNeed": 9325,
      "ĠAngular": 9326,
      "ĠAngeles": 9327,
      "Ġtells": 9328,
      "ĠMaathai": 9329,
      "bbq": 9330,
      "Ġdigit": 9331,
      "Ġexecution": 9332,
      "fortunately": 9333,
      "Ġurban": 9334,
      "related": 9335,
      "Ġassemblies": 9336,
      "solve": 9337,
      "Ġrecommended": 9338,
      "Ġdiscussed": 9339,
      "skym": 9340,
      "ĠØ¨": 9341,
      "Ġtalking": 9342,
      "Ġsynths": 9343,
      "sequent": 9344,
      "ĠDetermine": 9345,
      "Ġlegal": 9346,
      "Ġcolumns": 9347,
      "ðŁĳ": 9348,
      "ĠAgency": 9349,
      "ĠTesting": 9350,
      "Ġinfluen": 9351,
      "Ġvisiting": 9352,
      "gitlab": 9353,
      "ĠTopic": 9354,
      "Ġliterary": 9355,
      "ĠALGEBRA": 9356,
      "Ġphotos": 9357,
      "Ġmeaningful": 9358,
      "Ġcircumstances": 9359,
      "iáº¿t": 9360,
      "moked": 9361,
      "sheet": 9362,
      "à©Īà¥¤": 9363,
      "Ġconsumer": 9364,
      "Ġchallenging": 9365,
      "Ġpersons": 9366,
      "ĠCircular": 9367,
      "ĠMexican": 9368,
      "ĠDijon": 9369,
      "Ġcylinder": 9370,
      "Ġworst": 9371,
      "Ġworry": 9372,
      "Ġexception": 9373,
      "ĠUpdate": 9374,
      "Ġemployees": 9375,
      "Ġresponded": 9376,
      "Ġrespondents": 9377,
      "Ġinnocent": 9378,
      "ĠAcids": 9379,
      "deployer": 9380,
      "ĠBowl": 9381,
      "ĠWordStream": 9382,
      "ĠDisplay": 9383,
      "ĠRepublicans": 9384,
      "Ġtrigonometry": 9385,
      "Ġencouraged": 9386,
      "ĠPractices": 9387,
      "Ġdemonstrate": 9388,
      "Ġsignificantly": 9389,
      "Ġtorped": 9390,
      "Ġthousand": 9391,
      "Ġeventually": 9392,
[...]
